#ifndef WAKE_WORD_MODEL_H
#define WAKE_WORD_MODEL_H

#include <stdint.h>

extern const unsigned char model[];
extern const unsigned int model_len;

const unsigned char model[] = {
    0x20, 0x00, 0x00, 0x00, 0x54, 0x46, 0x4C, 0x33, 0x00, 0x00, 0x00, 0x00, 
    0x14, 0x00, 0x20, 0x00, 0x1C, 0x00, 0x18, 0x00, 0x14, 0x00, 0x10, 0x00, 
    0x0C, 0x00, 0x00, 0x00, 0x08, 0x00, 0x04, 0x00, 0x14, 0x00, 0x00, 0x00, 
    0x1C, 0x00, 0x00, 0x00, 0x8C, 0x00, 0x00, 0x00, 0xE4, 0x00, 0x00, 0x00, 
    0xE4, 0x17, 0x00, 0x00, 0xF4, 0x17, 0x00, 0x00, 0xC8, 0x36, 0x00, 0x00, 
    0x03, 0x00, 0x00, 0x00, 0x01, 0x00, 0x00, 0x00, 0x04, 0x00, 0x00, 0x00, 
    0x62, 0xE2, 0xFF, 0xFF, 0x0C, 0x00, 0x00, 0x00, 0x1C, 0x00, 0x00, 0x00, 
    0x3C, 0x00, 0x00, 0x00, 0x0F, 0x00, 0x00, 0x00, 0x73, 0x65, 0x72, 0x76, 
    0x69, 0x6E, 0x67, 0x5F, 0x64, 0x65, 0x66, 0x61, 0x75, 0x6C, 0x74, 0x00, 
    0x01, 0x00, 0x00, 0x00, 0x04, 0x00, 0x00, 0x00, 0x90, 0xFF, 0xFF, 0xFF, 
    0x35, 0x00, 0x00, 0x00, 0x04, 0x00, 0x00, 0x00, 0x08, 0x00, 0x00, 0x00, 
    0x6F, 0x75, 0x74, 0x70, 0x75, 0x74, 0x5F, 0x30, 0x00, 0x00, 0x00, 0x00, 
    0x01, 0x00, 0x00, 0x00, 0x04, 0x00, 0x00, 0x00, 0x6A, 0xE2, 0xFF, 0xFF, 
    0x04, 0x00, 0x00, 0x00, 0x0F, 0x00, 0x00, 0x00, 0x6B, 0x65, 0x72, 0x61, 
    0x73, 0x5F, 0x74, 0x65, 0x6E, 0x73, 0x6F, 0x72, 0x5F, 0x34, 0x39, 0x00, 
    0x02, 0x00, 0x00, 0x00, 0x34, 0x00, 0x00, 0x00, 0x04, 0x00, 0x00, 0x00, 
    0xDC, 0xFF, 0xFF, 0xFF, 0x38, 0x00, 0x00, 0x00, 0x04, 0x00, 0x00, 0x00, 
    0x13, 0x00, 0x00, 0x00, 0x43, 0x4F, 0x4E, 0x56, 0x45, 0x52, 0x53, 0x49, 
    0x4F, 0x4E, 0x5F, 0x4D, 0x45, 0x54, 0x41, 0x44, 0x41, 0x54, 0x41, 0x00, 
    0x08, 0x00, 0x0C, 0x00, 0x08, 0x00, 0x04, 0x00, 0x08, 0x00, 0x00, 0x00, 
    0x37, 0x00, 0x00, 0x00, 0x04, 0x00, 0x00, 0x00, 0x13, 0x00, 0x00, 0x00, 
    0x6D, 0x69, 0x6E, 0x5F, 0x72, 0x75, 0x6E, 0x74, 0x69, 0x6D, 0x65, 0x5F, 
    0x76, 0x65, 0x72, 0x73, 0x69, 0x6F, 0x6E, 0x00, 0x39, 0x00, 0x00, 0x00, 
    0xFC, 0x16, 0x00, 0x00, 0xF4, 0x16, 0x00, 0x00, 0xE0, 0x16, 0x00, 0x00, 
    0xCC, 0x16, 0x00, 0x00, 0xB8, 0x16, 0x00, 0x00, 0xA4, 0x16, 0x00, 0x00, 
    0x9C, 0x16, 0x00, 0x00, 0x0C, 0x16, 0x00, 0x00, 0xF4, 0x15, 0x00, 0x00, 
    0xC4, 0x15, 0x00, 0x00, 0x74, 0x15, 0x00, 0x00, 0xE4, 0x14, 0x00, 0x00, 
    0xD4, 0x13, 0x00, 0x00, 0xA4, 0x13, 0x00, 0x00, 0x34, 0x13, 0x00, 0x00, 
    0xE4, 0x12, 0x00, 0x00, 0xD4, 0x0C, 0x00, 0x00, 0x44, 0x0C, 0x00, 0x00, 
    0x28, 0x0C, 0x00, 0x00, 0x0C, 0x0C, 0x00, 0x00, 0xF0, 0x0B, 0x00, 0x00, 
    0xD4, 0x0B, 0x00, 0x00, 0xB8, 0x0B, 0x00, 0x00, 0x9C, 0x0B, 0x00, 0x00, 
    0x8C, 0x05, 0x00, 0x00, 0x7C, 0x01, 0x00, 0x00, 0x74, 0x01, 0x00, 0x00, 
    0x6C, 0x01, 0x00, 0x00, 0x64, 0x01, 0x00, 0x00, 0x5C, 0x01, 0x00, 0x00, 
    0x54, 0x01, 0x00, 0x00, 0x4C, 0x01, 0x00, 0x00, 0x44, 0x01, 0x00, 0x00, 
    0x3C, 0x01, 0x00, 0x00, 0x34, 0x01, 0x00, 0x00, 0x2C, 0x01, 0x00, 0x00, 
    0x24, 0x01, 0x00, 0x00, 0x1C, 0x01, 0x00, 0x00, 0x14, 0x01, 0x00, 0x00, 
    0x0C, 0x01, 0x00, 0x00, 0x04, 0x01, 0x00, 0x00, 0xFC, 0x00, 0x00, 0x00, 
    0xF4, 0x00, 0x00, 0x00, 0xEC, 0x00, 0x00, 0x00, 0xE4, 0x00, 0x00, 0x00, 
    0xDC, 0x00, 0x00, 0x00, 0xD4, 0x00, 0x00, 0x00, 0xCC, 0x00, 0x00, 0x00, 
    0xC4, 0x00, 0x00, 0x00, 0xBC, 0x00, 0x00, 0x00, 0xB4, 0x00, 0x00, 0x00, 
    0xAC, 0x00, 0x00, 0x00, 0xA4, 0x00, 0x00, 0x00, 0x9C, 0x00, 0x00, 0x00, 
    0x94, 0x00, 0x00, 0x00, 0x74, 0x00, 0x00, 0x00, 0x04, 0x00, 0x00, 0x00, 
    0xCA, 0xE3, 0xFF, 0xFF, 0x04, 0x00, 0x00, 0x00, 0x60, 0x00, 0x00, 0x00, 
    0x0C, 0x00, 0x00, 0x00, 0x08, 0x00, 0x0E, 0x00, 0x08, 0x00, 0x04, 0x00, 
    0x08, 0x00, 0x00, 0x00, 0x10, 0x00, 0x00, 0x00, 0x28, 0x00, 0x00, 0x00, 
    0x00, 0x00, 0x06, 0x00, 0x08, 0x00, 0x04, 0x00, 0x06, 0x00, 0x00, 0x00, 
    0x04, 0x00, 0x00, 0x00, 0x01, 0x00, 0x00, 0x00, 0xEA, 0x03, 0x00, 0x00, 
    0x0C, 0x00, 0x18, 0x00, 0x14, 0x00, 0x10, 0x00, 0x0C, 0x00, 0x04, 0x00, 
    0x0C, 0x00, 0x00, 0x00, 0x81, 0x2B, 0x46, 0xB6, 0xB7, 0xEC, 0x8C, 0x0B, 
    0x02, 0x00, 0x00, 0x00, 0x02, 0x00, 0x00, 0x00, 0x04, 0x00, 0x00, 0x00, 
    0x06, 0x00, 0x00, 0x00, 0x32, 0x2E, 0x31, 0x37, 0x2E, 0x31, 0x00, 0x00, 
    0x36, 0xE4, 0xFF, 0xFF, 0x04, 0x00, 0x00, 0x00, 0x10, 0x00, 0x00, 0x00, 
    0x32, 0x2E, 0x31, 0x37, 0x2E, 0x30, 0x00, 0x00, 0x00, 0x00, 0x00, 0x00, 
    0x00, 0x00, 0x00, 0x00, 0x1C, 0xCB, 0xFF, 0xFF, 0x20, 0xCB, 0xFF, 0xFF, 
    0x24, 0xCB, 0xFF, 0xFF, 0x28, 0xCB, 0xFF, 0xFF, 0x2C, 0xCB, 0xFF, 0xFF, 
    0x30, 0xCB, 0xFF, 0xFF, 0x34, 0xCB, 0xFF, 0xFF, 0x38, 0xCB, 0xFF, 0xFF, 
    0x3C, 0xCB, 0xFF, 0xFF, 0x40, 0xCB, 0xFF, 0xFF, 0x44, 0xCB, 0xFF, 0xFF, 
    0x48, 0xCB, 0xFF, 0xFF, 0x4C, 0xCB, 0xFF, 0xFF, 0x50, 0xCB, 0xFF, 0xFF, 
    0x54, 0xCB, 0xFF, 0xFF, 0x58, 0xCB, 0xFF, 0xFF, 0x5C, 0xCB, 0xFF, 0xFF, 
    0x60, 0xCB, 0xFF, 0xFF, 0x64, 0xCB, 0xFF, 0xFF, 0x68, 0xCB, 0xFF, 0xFF, 
    0x6C, 0xCB, 0xFF, 0xFF, 0x70, 0xCB, 0xFF, 0xFF, 0x74, 0xCB, 0xFF, 0xFF, 
    0x78, 0xCB, 0xFF, 0xFF, 0x7C, 0xCB, 0xFF, 0xFF, 0x80, 0xCB, 0xFF, 0xFF, 
    0x84, 0xCB, 0xFF, 0xFF, 0x88, 0xCB, 0xFF, 0xFF, 0x8C, 0xCB, 0xFF, 0xFF, 
    0xC6, 0xE4, 0xFF, 0xFF, 0x04, 0x00, 0x00, 0x00, 0x00, 0x04, 0x00, 0x00, 
    0x1A, 0x73, 0x0E, 0x18, 0x3E, 0xDA, 0x57, 0xC1, 0x9E, 0x8D, 0xEB, 0x20, 
    0x30, 0x8C, 0x40, 0x81, 0xC3, 0x1B, 0x36, 0xCF, 0xB8, 0x6D, 0xC0, 0x04, 
    0xB1, 0x32, 0x5C, 0xF4, 0xEE, 0x52, 0x48, 0x42, 0x6F, 0x97, 0x28, 0x77, 
    0x9A, 0x1B, 0xB7, 0x9B, 0x0D, 0x05, 0xB8, 0x62, 0x32, 0x68, 0xB5, 0x61, 
    0x50, 0x4E, 0xDE, 0xE0, 0xF6, 0xE0, 0xA5, 0x7F, 0x08, 0x6E, 0xCB, 0xCD, 
    0x08, 0x01, 0xB9, 0xEF, 0xCF, 0x35, 0xFC, 0xFE, 0x7F, 0x61, 0xB3, 0x39, 
    0x63, 0x26, 0x13, 0x93, 0x81, 0x1A, 0x60, 0x9F, 0xB7, 0xD8, 0x6F, 0xFF, 
    0x15, 0x92, 0xB7, 0xA5, 0xC7, 0xE9, 0x40, 0xF3, 0xF8, 0xD8, 0xDE, 0xD5, 
    0x4E, 0x91, 0x72, 0xB9, 0xC5, 0xF3, 0xEC, 0xB8, 0xF9, 0x23, 0xD7, 0x70, 
    0x41, 0x0E, 0x02, 0xA1, 0x5D, 0xCE, 0xEE, 0xFE, 0x36, 0xE1, 0xE6, 0x0A, 
    0xEA, 0xA8, 0x01, 0xF3, 0x81, 0xF4, 0x40, 0x9D, 0x87, 0x15, 0x53, 0x27, 
    0x9D, 0xB0, 0xB7, 0xB9, 0xCB, 0x81, 0xEA, 0xB0, 0x65, 0x0C, 0xB6, 0xE9, 
    0x3C, 0x40, 0x15, 0x0F, 0x07, 0x34, 0x45, 0x15, 0x0F, 0xB3, 0x4C, 0xA6, 
    0xD2, 0x31, 0xC7, 0xC3, 0x9A, 0x59, 0xB4, 0x02, 0x96, 0xF9, 0x27, 0x19, 
    0x3C, 0x53, 0x9D, 0xF6, 0x81, 0x05, 0xD8, 0x6F, 0x85, 0xD0, 0xA8, 0x55, 
    0x27, 0xC9, 0x85, 0x38, 0x2D, 0x9A, 0xDA, 0x0B, 0x7F, 0x41, 0xE3, 0x5B, 
    0x75, 0x61, 0xD4, 0x68, 0xD1, 0x25, 0x7F, 0x29, 0xE6, 0x2E, 0x92, 0xC7, 
    0xDB, 0xE1, 0xF2, 0x9A, 0x46, 0x44, 0xE8, 0x48, 0x58, 0x8E, 0x14, 0xC1, 
    0xE5, 0x2D, 0xAE, 0x1A, 0xBA, 0x1B, 0x83, 0x58, 0xD4, 0x8E, 0x4E, 0x9B, 
    0xEE, 0x75, 0x97, 0x3C, 0xAF, 0x08, 0xB6, 0xAA, 0xFE, 0x33, 0x56, 0x33, 
    0x4E, 0x7F, 0xEB, 0xA4, 0x6D, 0x66, 0x09, 0x72, 0xFD, 0x11, 0xA5, 0x56, 
    0x85, 0x78, 0x78, 0x8D, 0xBA, 0x41, 0x16, 0x28, 0x6D, 0x8F, 0xD3, 0x55, 
    0x29, 0xF0, 0x8C, 0xF6, 0x7F, 0x88, 0x15, 0xDB, 0xA8, 0x39, 0x3B, 0xFA, 
    0x45, 0x3C, 0x36, 0x5C, 0xA6, 0xF6, 0xF4, 0xF3, 0x54, 0x15, 0x2F, 0xA4, 
    0xE4, 0xE0, 0xA1, 0xC5, 0x40, 0x6F, 0xAE, 0x45, 0x49, 0x29, 0x9A, 0xB0, 
    0x61, 0xF1, 0xB5, 0xD6, 0xCC, 0x08, 0xF6, 0xAB, 0x25, 0x53, 0x32, 0x23, 
    0x4E, 0x96, 0x81, 0x0B, 0xB3, 0x94, 0xE4, 0x6E, 0xFA, 0xE6, 0x96, 0xD8, 
    0xCA, 0x43, 0x74, 0xA3, 0xA0, 0x1D, 0x1F, 0x50, 0x1B, 0x17, 0x17, 0x3D, 
    0x2D, 0x81, 0x3C, 0x21, 0xA8, 0x65, 0x49, 0xD9, 0x66, 0x18, 0x82, 0xCF, 
    0x6D, 0x5E, 0xAB, 0x4C, 0x16, 0xC8, 0xC6, 0x5A, 0xDA, 0x95, 0x1C, 0x17, 
    0x3A, 0x26, 0x20, 0x70, 0x81, 0x1C, 0x1C, 0x2D, 0xB4, 0x09, 0x26, 0xD1, 
    0x1D, 0xC4, 0x6A, 0xDC, 0xF5, 0xF9, 0xD7, 0xEA, 0xEC, 0x76, 0x98, 0x3E, 
    0xB3, 0x81, 0x5E, 0x06, 0xCF, 0x21, 0x91, 0xA0, 0x27, 0x04, 0xB3, 0xEE, 
    0xE2, 0xB3, 0xE2, 0xDD, 0x4A, 0x30, 0xE4, 0x9A, 0xC9, 0xF7, 0x70, 0xBC, 
    0xAC, 0xB9, 0xC7, 0x58, 0x4A, 0xC6, 0xC7, 0x91, 0xE6, 0x6E, 0x39, 0x27, 
    0x00, 0x48, 0x74, 0x67, 0x14, 0x4F, 0xFB, 0x4A, 0xF0, 0x69, 0x20, 0x59, 
    0x56, 0xE0, 0xF5, 0xFF, 0x43, 0x69, 0xCF, 0xF6, 0x27, 0x58, 0xD5, 0xE4, 
    0x7F, 0xB4, 0x6D, 0x01, 0xD5, 0xDC, 0x1D, 0xE6, 0x7F, 0xB1, 0x69, 0x22, 
    0x04, 0x52, 0x3F, 0x1B, 0x4F, 0x64, 0x4C, 0xB8, 0x36, 0x31, 0x23, 0xAC, 
    0x0B, 0xC4, 0x88, 0xA1, 0x48, 0xAB, 0x58, 0x84, 0x2C, 0x92, 0x61, 0x04, 
    0x0E, 0xC2, 0x4F, 0x1F, 0x47, 0x41, 0x7F, 0x61, 0xEF, 0x19, 0xBE, 0x07, 
    0x58, 0x81, 0x96, 0xC6, 0x52, 0xC3, 0x0D, 0xFC, 0xE4, 0xD6, 0x0F, 0xFC, 
    0x67, 0x64, 0x09, 0xBE, 0x7D, 0x34, 0xE1, 0x43, 0x53, 0x56, 0xD5, 0xEC, 
    0xDE, 0x26, 0x6C, 0xD1, 0x51, 0xF8, 0xDA, 0xED, 0x81, 0x0C, 0x92, 0x17, 
    0x9A, 0x05, 0x32, 0x18, 0x92, 0x6B, 0xB8, 0x09, 0x36, 0xE7, 0x52, 0x16, 
    0xE3, 0xC9, 0xA8, 0x21, 0x7F, 0xBA, 0x40, 0x61, 0x3E, 0x5A, 0xF6, 0x4E, 
    0xC9, 0xBC, 0x19, 0x56, 0x32, 0xF4, 0x91, 0xC6, 0x89, 0xB7, 0xCF, 0xDB, 
    0xB1, 0xCE, 0xF5, 0x57, 0xE0, 0x9B, 0x0C, 0xE3, 0x19, 0xF0, 0xF5, 0x11, 
    0x57, 0x1F, 0xA7, 0xE3, 0x47, 0x56, 0x3A, 0xF5, 0xC7, 0x3E, 0xEE, 0xF7, 
    0xCD, 0x56, 0xB7, 0x86, 0xD7, 0xC5, 0x2F, 0xEF, 0x44, 0x33, 0x81, 0x8B, 
    0xD0, 0x91, 0x5F, 0xF3, 0x43, 0x00, 0x08, 0x00, 0xA9, 0x48, 0xE7, 0x15, 
    0xE7, 0xEB, 0x65, 0x62, 0x47, 0xE7, 0xC0, 0x81, 0x72, 0xAE, 0x3C, 0xBF, 
    0x75, 0xD8, 0x6D, 0x4B, 0x8F, 0xA2, 0xD3, 0x45, 0xDD, 0xA6, 0x3F, 0xA5, 
    0xAF, 0x21, 0xDE, 0xFE, 0x33, 0xA6, 0x4C, 0xB5, 0xC4, 0x4F, 0xFE, 0xC4, 
    0x92, 0x56, 0xF6, 0xC6, 0x25, 0x63, 0x43, 0x43, 0x1D, 0x8F, 0xFD, 0x81, 
    0xD8, 0x3C, 0x3C, 0x14, 0x10, 0x90, 0x4E, 0x25, 0x86, 0x50, 0xDA, 0x24, 
    0x13, 0xB6, 0x52, 0xA4, 0x4E, 0x65, 0x4F, 0x63, 0x8E, 0xF8, 0xC0, 0xC5, 
    0xDA, 0xA7, 0x7F, 0xCD, 0x94, 0x38, 0x4B, 0x48, 0x21, 0x2C, 0xB3, 0x1E, 
    0x41, 0x15, 0x10, 0x3E, 0x37, 0x99, 0x5D, 0x34, 0xAD, 0xC4, 0x09, 0x9E, 
    0x0A, 0x7F, 0x1A, 0x88, 0x61, 0x8A, 0xBA, 0xFA, 0x91, 0xDB, 0x5F, 0x45, 
    0xF0, 0xE3, 0x3A, 0xE3, 0x9C, 0x10, 0xD4, 0xED, 0xDB, 0x34, 0x41, 0xFE, 
    0x8F, 0x96, 0xFC, 0xE0, 0xC6, 0x41, 0xB6, 0x32, 0x9B, 0x8E, 0x66, 0xF3, 
    0x03, 0x10, 0x95, 0xA6, 0x2F, 0xFE, 0xF3, 0x25, 0xFF, 0x76, 0x26, 0x7F, 
    0x67, 0x6F, 0x61, 0x01, 0x1B, 0x47, 0x6E, 0xE4, 0xAA, 0x11, 0x75, 0xD3, 
    0x2D, 0xF4, 0xE2, 0x94, 0xBD, 0xE5, 0xE8, 0x01, 0xBF, 0x61, 0xE7, 0x13, 
    0xE9, 0x56, 0xFD, 0xCB, 0x3A, 0xA6, 0x29, 0x0F, 0x51, 0x20, 0xDB, 0x5A, 
    0x26, 0x3D, 0x7F, 0x5D, 0xB5, 0x64, 0x2F, 0xEE, 0x60, 0x34, 0xB7, 0x8E, 
    0x56, 0xD0, 0xCE, 0xB8, 0x63, 0xE7, 0xB0, 0x71, 0x24, 0xCB, 0x7B, 0x6D, 
    0x0F, 0xAC, 0x81, 0x86, 0x72, 0xCE, 0xED, 0x4C, 0x79, 0x75, 0xBA, 0x7A, 
    0x05, 0xE3, 0xAF, 0xD6, 0x57, 0x88, 0xF4, 0x15, 0xE6, 0x13, 0xB5, 0xB9, 
    0xDC, 0xBE, 0x64, 0x1C, 0x69, 0x27, 0xFB, 0xBF, 0x13, 0xD3, 0x2F, 0x27, 
    0x3D, 0xBB, 0xC1, 0x1A, 0xFF, 0xE0, 0x37, 0xC5, 0x81, 0xA3, 0x25, 0xEA, 
    0xDC, 0xC2, 0xE0, 0x28, 0xA4, 0x96, 0xDE, 0x46, 0x3D, 0xE4, 0xE6, 0x40, 
    0x36, 0x19, 0x7F, 0xEB, 0x0E, 0xDC, 0x40, 0x8F, 0x45, 0x3A, 0xA1, 0xA6, 
    0xBE, 0xDA, 0xB5, 0x84, 0x41, 0xB1, 0x27, 0x18, 0x50, 0xC5, 0xC9, 0x16, 
    0xAF, 0xFB, 0xCA, 0x20, 0xA2, 0x41, 0x46, 0xB1, 0xC7, 0x7F, 0x4F, 0xD1, 
    0x9B, 0x74, 0x5C, 0x00, 0x39, 0xE3, 0xB4, 0x46, 0xF2, 0x9C, 0x7B, 0x0C, 
    0x10, 0x6A, 0x5E, 0xD6, 0x66, 0xB3, 0x1B, 0x62, 0x9E, 0xB1, 0xAD, 0x27, 
    0x29, 0xDE, 0xBC, 0x79, 0x4E, 0x2D, 0xD0, 0x76, 0x7F, 0xC0, 0xCC, 0x13, 
    0x51, 0xCC, 0x52, 0xCD, 0xCF, 0x6C, 0x4E, 0x60, 0x08, 0x04, 0xF2, 0xDD, 
    0x01, 0x40, 0x0F, 0x30, 0xC8, 0xCD, 0x94, 0x81, 0x97, 0xCB, 0x08, 0x22, 
    0xA2, 0x4E, 0xA6, 0x8A, 0x84, 0x44, 0xCE, 0xD8, 0x0A, 0x92, 0x9E, 0xC3, 
    0xAC, 0xCF, 0x43, 0x0E, 0xF3, 0xB9, 0x2A, 0xF3, 0xAE, 0x15, 0x1F, 0xAC, 
    0x3B, 0x32, 0xC4, 0xBB, 0x90, 0x1F, 0xDB, 0xB8, 0xAC, 0x33, 0x64, 0xE0, 
    0xC9, 0xB0, 0xE4, 0x5F, 0x37, 0x67, 0x72, 0x97, 0xA3, 0x31, 0x0D, 0x2E, 
    0x29, 0xB9, 0xC3, 0x81, 0xD2, 0xE8, 0xFF, 0xFF, 0x04, 0x00, 0x00, 0x00, 
    0x00, 0x06, 0x00, 0x00, 0x22, 0xF2, 0x3B, 0xBE, 0x1E, 0x20, 0xAF, 0x52, 
    0x19, 0x0D, 0xF9, 0xC1, 0xB6, 0x84, 0x97, 0x1C, 0x2D, 0x62, 0xE1, 0x11, 
    0x10, 0x52, 0xA8, 0x9F, 0x9F, 0x81, 0x67, 0x56, 0xE3, 0xC9, 0xD6, 0x16, 
    0x63, 0xFB, 0x21, 0x8E, 0x54, 0x4C, 0x47, 0x51, 0xF9, 0x9F, 0xDC, 0x5C, 
    0x84, 0x96, 0x71, 0x6F, 0x03, 0x89, 0x45, 0x09, 0xFF, 0x21, 0x25, 0xBE, 
    0x36, 0xE3, 0xC0, 0x2E, 0xA7, 0x81, 0x44, 0xC3, 0xBF, 0x66, 0x60, 0xE2, 
    0x0C, 0x6A, 0xD9, 0x04, 0xA6, 0x66, 0x53, 0xCA, 0xB5, 0x37, 0xE5, 0x6C, 
    0x19, 0x0B, 0xE5, 0x63, 0xF0, 0xF1, 0xE8, 0xDA, 0x92, 0x5F, 0x24, 0x06, 
    0xFA, 0x18, 0x33, 0xA1, 0xEC, 0x78, 0x7F, 0x69, 0x1F, 0x91, 0x32, 0xE6, 
    0xC5, 0x19, 0xEA, 0x36, 0x5F, 0x94, 0x37, 0x1A, 0x0D, 0x28, 0x24, 0xDA, 
    0xA5, 0x95, 0x01, 0x28, 0x3A, 0xBA, 0x1E, 0xF0, 0x5D, 0x88, 0xFE, 0xBF, 
    0x31, 0xF0, 0x78, 0xF9, 0x44, 0x69, 0x16, 0xA7, 0xD4, 0x8E, 0xB4, 0xBE, 
    0xD5, 0xFD, 0xDE, 0x27, 0xEA, 0xC3, 0xDA, 0x55, 0x91, 0x3B, 0x4F, 0xE6, 
    0xD1, 0xDD, 0x34, 0x11, 0x3C, 0x70, 0x1D, 0x36, 0x9F, 0x76, 0x10, 0x56, 
    0x19, 0xF1, 0xA5, 0xC6, 0x9B, 0xCD, 0xC8, 0xB3, 0x48, 0x74, 0xD5, 0x7F, 
    0x96, 0xFB, 0x11, 0xDE, 0x69, 0x3E, 0xEA, 0x1E, 0x53, 0xA9, 0x6D, 0x4C, 
    0xE4, 0x4C, 0xBC, 0xA2, 0x5E, 0x19, 0x51, 0xDF, 0xCF, 0x89, 0x17, 0x9E, 
    0xEB, 0x04, 0x87, 0x4D, 0x5D, 0xB3, 0x5E, 0x3A, 0xD4, 0x0D, 0xE8, 0xFE, 
    0x96, 0x2C, 0x00, 0xEC, 0x55, 0x94, 0x37, 0x4B, 0x81, 0x3F, 0x53, 0xFB, 
    0x34, 0x49, 0x86, 0x55, 0x07, 0xB8, 0x21, 0xF3, 0x9A, 0xEE, 0x4C, 0x5A, 
    0x2A, 0xE4, 0xDB, 0xA4, 0xD5, 0x25, 0x8B, 0x55, 0x72, 0x38, 0x81, 0x01, 
    0xA2, 0x12, 0x73, 0xC4, 0x89, 0x85, 0x2D, 0xDD, 0x5A, 0x31, 0x89, 0x6D, 
    0x29, 0x34, 0x33, 0x3F, 0xD0, 0x5B, 0xB3, 0x4E, 0x68, 0xD1, 0x36, 0xCE, 
    0x20, 0x60, 0x1E, 0x9B, 0x07, 0x97, 0x4C, 0x25, 0x26, 0x72, 0xCB, 0x89, 
    0x83, 0x3D, 0xB1, 0x2C, 0x8D, 0xBD, 0xFD, 0xA5, 0x31, 0x67, 0xB8, 0xCB, 
    0xCB, 0x95, 0x38, 0xDC, 0x1A, 0x23, 0x39, 0x1C, 0xE3, 0xF2, 0x94, 0x39, 
    0x08, 0xD1, 0x9D, 0xF6, 0x92, 0xAD, 0x41, 0x06, 0x81, 0xF9, 0x2A, 0x22, 
    0xE6, 0x64, 0x56, 0x69, 0xB2, 0x6E, 0x4E, 0x89, 0xCB, 0xE8, 0x87, 0xF3, 
    0x29, 0x67, 0x16, 0x10, 0x0E, 0xBF, 0xBD, 0x9E, 0x81, 0x61, 0xFC, 0x3D, 
    0xF8, 0x9D, 0xD1, 0x1C, 0xBC, 0x56, 0x93, 0x90, 0x98, 0x6E, 0x90, 0xA6, 
    0xBE, 0xCD, 0x0D, 0xC4, 0x88, 0x2E, 0x2E, 0x99, 0xA3, 0x75, 0xAD, 0x45, 
    0x10, 0x4D, 0x34, 0x3E, 0x36, 0x61, 0x6E, 0x4A, 0xF5, 0x64, 0xD5, 0x0B, 
    0x55, 0x4D, 0x14, 0x4C, 0xD7, 0x22, 0x57, 0x0A, 0xD6, 0x0F, 0x10, 0x6C, 
    0xC8, 0xE8, 0x89, 0x34, 0x81, 0xC3, 0x08, 0xB3, 0x49, 0x18, 0x41, 0x8F, 
    0xA1, 0x5C, 0x75, 0x66, 0x7D, 0xCE, 0xEB, 0x84, 0x2D, 0x38, 0xEE, 0x29, 
    0x81, 0xCA, 0x22, 0x36, 0x79, 0x2A, 0x41, 0x05, 0x7F, 0x3B, 0xD7, 0xC5, 
    0xD2, 0x41, 0x89, 0x8F, 0x52, 0x6B, 0x81, 0x0A, 0x14, 0xF6, 0x62, 0x5A, 
    0x93, 0x1A, 0xC4, 0x3C, 0x92, 0xD3, 0xB1, 0x17, 0x67, 0xA2, 0x11, 0x27, 
    0x83, 0x94, 0xD3, 0xA6, 0x20, 0xC9, 0x87, 0x14, 0x98, 0x27, 0x30, 0x56, 
    0x39, 0xF0, 0x09, 0xAA, 0xC0, 0xD1, 0x51, 0x10, 0x24, 0xEA, 0x23, 0x1F, 
    0x5C, 0x49, 0xC9, 0x03, 0xAF, 0x88, 0xD4, 0x0F, 0x4F, 0x17, 0x84, 0x5E, 
    0xCC, 0x2E, 0x26, 0x65, 0x4D, 0xB4, 0x3B, 0x0F, 0xD7, 0xF2, 0x5F, 0xB2, 
    0x1F, 0x8A, 0xB6, 0x16, 0x81, 0xAD, 0xB5, 0xD3, 0x8A, 0xCB, 0x73, 0x14, 
    0xA1, 0xC0, 0xD1, 0xDA, 0xF6, 0x95, 0x0A, 0x35, 0x5D, 0xC4, 0x34, 0x2F, 
    0xAD, 0xFA, 0x72, 0x98, 0x63, 0xD1, 0x55, 0x29, 0x24, 0xF8, 0xF4, 0xA7, 
    0x17, 0x9C, 0x0D, 0x4D, 0x81, 0xAB, 0xD0, 0xEA, 0xED, 0x8B, 0x3E, 0xF5, 
    0xDE, 0xF8, 0xD6, 0xBD, 0x4A, 0x33, 0x0B, 0xAD, 0x1B, 0xC0, 0x51, 0xD0, 
    0xD0, 0xE3, 0xF2, 0xC2, 0x65, 0x5D, 0xAF, 0x20, 0xE8, 0xE3, 0xA5, 0xFC, 
    0x35, 0xB4, 0xF4, 0x5F, 0xBF, 0xBE, 0x6C, 0xCF, 0xF3, 0xEE, 0x7F, 0xDE, 
    0xD3, 0xDA, 0xF0, 0xDE, 0xA7, 0xCE, 0xC5, 0xD2, 0x27, 0xAB, 0xC9, 0xBE, 
    0xD5, 0xD0, 0x62, 0x02, 0x75, 0x6B, 0x6C, 0x74, 0xDD, 0xAE, 0x1E, 0xBC, 
    0xCD, 0xE7, 0xD1, 0xAC, 0x8E, 0xE6, 0xF0, 0xF0, 0x46, 0xDE, 0x0E, 0x3C, 
    0xEA, 0x03, 0x1B, 0xD1, 0x45, 0xA4, 0x57, 0x8E, 0xED, 0xB5, 0x52, 0x47, 
    0xCB, 0x43, 0xC8, 0xCB, 0x65, 0xEC, 0x12, 0x31, 0xA9, 0x0A, 0x90, 0xE9, 
    0x95, 0x91, 0xE3, 0x9C, 0x38, 0x36, 0xEF, 0x0F, 0x44, 0x17, 0x18, 0x33, 
    0x52, 0xF0, 0x81, 0x1B, 0xA3, 0xA5, 0x54, 0x91, 0x00, 0xBE, 0x06, 0xAA, 
    0x5F, 0xA7, 0xB1, 0x51, 0x2B, 0x69, 0x73, 0x08, 0x36, 0xD4, 0x26, 0x6B, 
    0x88, 0x6C, 0x91, 0x54, 0xF5, 0x53, 0x22, 0x30, 0x26, 0xEF, 0xED, 0x6D, 
    0x81, 0xD3, 0xBA, 0x61, 0x73, 0xB5, 0x25, 0x61, 0x68, 0x82, 0x1E, 0x26, 
    0x53, 0xBA, 0xF7, 0x75, 0x3D, 0x01, 0xAC, 0xCB, 0x3D, 0x83, 0x55, 0x6E, 
    0x5F, 0x0E, 0xC0, 0xE7, 0xB6, 0x0F, 0x03, 0x7B, 0x84, 0x5B, 0xA0, 0x28, 
    0x9E, 0x98, 0x5C, 0x26, 0x94, 0xB1, 0xFB, 0x8D, 0xF2, 0x51, 0xF3, 0xFA, 
    0x8D, 0x73, 0x2E, 0xD8, 0x58, 0x42, 0x4C, 0xEF, 0x57, 0x92, 0xF1, 0x98, 
    0xB8, 0x4C, 0x2F, 0xDC, 0x10, 0x7A, 0x40, 0x24, 0x46, 0xDB, 0x29, 0xEC, 
    0x57, 0x81, 0x95, 0x71, 0x9E, 0xDA, 0x84, 0xE4, 0x08, 0x38, 0x72, 0x5B, 
    0xDE, 0x7F, 0x64, 0xAD, 0x0D, 0x2B, 0x2E, 0x31, 0x8F, 0xE6, 0x28, 0xA8, 
    0x25, 0x09, 0x3B, 0x40, 0x66, 0xE7, 0x36, 0x6C, 0x98, 0x70, 0xC5, 0x90, 
    0x87, 0x83, 0xD2, 0x29, 0x63, 0x7B, 0x90, 0x1C, 0x4A, 0xD9, 0xCB, 0xA2, 
    0x9D, 0x93, 0x90, 0x39, 0xDF, 0x9F, 0x0E, 0x90, 0xC2, 0xDB, 0xDC, 0x48, 
    0xFF, 0xAA, 0x0E, 0xB3, 0x7A, 0xEB, 0x8F, 0xBE, 0xE6, 0x6B, 0x04, 0x64, 
    0x32, 0xA0, 0x8D, 0xEE, 0x98, 0x74, 0x60, 0x47, 0x4B, 0xBF, 0x50, 0x84, 
    0x53, 0x1D, 0x63, 0xA7, 0xC6, 0xB7, 0x0C, 0xD6, 0x81, 0x11, 0xD6, 0x1D, 
    0x5F, 0x47, 0x4B, 0x49, 0x03, 0x3D, 0x81, 0xA2, 0x0D, 0xC2, 0x39, 0xD6, 
    0x3A, 0x46, 0xCF, 0x0E, 0x07, 0xC1, 0x99, 0x42, 0x1C, 0xE6, 0xF0, 0x2B, 
    0xCC, 0x1C, 0x66, 0x88, 0xC3, 0xAC, 0x08, 0xD6, 0x3D, 0xE2, 0x63, 0x46, 
    0xAE, 0x4B, 0x16, 0x1D, 0xA8, 0xAC, 0xED, 0xEE, 0xAF, 0xA1, 0xB5, 0xA2, 
    0xDB, 0x32, 0x98, 0x65, 0x39, 0xDE, 0x1D, 0x97, 0x7F, 0x66, 0x28, 0xEB, 
    0xBF, 0x01, 0xBA, 0x44, 0x0D, 0x0C, 0xC6, 0x5D, 0x02, 0xE8, 0xA6, 0xA2, 
    0x51, 0xBA, 0x28, 0xD4, 0xAD, 0xAB, 0x8A, 0xB1, 0x11, 0x00, 0x0E, 0x94, 
    0xC3, 0x89, 0x98, 0xD8, 0x19, 0x0F, 0x71, 0xFD, 0xF7, 0xF4, 0x38, 0x28, 
    0x13, 0x91, 0xE6, 0x6B, 0x18, 0xF3, 0x67, 0xC2, 0x5E, 0x1F, 0x7F, 0x4A, 
    0xBC, 0xA0, 0x3D, 0xC2, 0xCB, 0x0A, 0x7A, 0x4D, 0x28, 0x36, 0x70, 0xFC, 
    0xF9, 0xFA, 0xA8, 0xEA, 0x52, 0xF5, 0xF3, 0xB4, 0xA2, 0x00, 0xA5, 0xFB, 
    0x23, 0xAC, 0x4D, 0xFC, 0xD7, 0x72, 0xBA, 0x62, 0xDF, 0xBA, 0x96, 0xA3, 
    0x89, 0x2A, 0x35, 0xCF, 0xB6, 0x14, 0xA7, 0xD3, 0x00, 0xF9, 0x98, 0x17, 
    0xB8, 0x8F, 0x69, 0x9B, 0xF4, 0xA1, 0x02, 0xB2, 0xC3, 0x60, 0x4C, 0xA7, 
    0x6A, 0x07, 0x2B, 0x11, 0x7F, 0xC9, 0xB1, 0xD7, 0x07, 0xFC, 0x34, 0x68, 
    0x19, 0x58, 0x6E, 0xEA, 0x39, 0x39, 0xC9, 0x2F, 0x7C, 0x94, 0x1F, 0x77, 
    0x09, 0xB1, 0xE7, 0x30, 0xB9, 0xC7, 0x43, 0x59, 0xB8, 0xFF, 0xEA, 0x50, 
    0xEF, 0x33, 0xCE, 0xC7, 0x5C, 0x45, 0x33, 0xF2, 0xEB, 0x52, 0x06, 0x64, 
    0x30, 0x4D, 0xA2, 0x07, 0x41, 0x6A, 0xC4, 0xC0, 0xA3, 0x1C, 0xD1, 0x35, 
    0x25, 0x03, 0x4D, 0x89, 0x96, 0x85, 0x1A, 0x35, 0x82, 0x3D, 0xCE, 0x35, 
    0x81, 0xD8, 0x9C, 0xE0, 0xE4, 0x8E, 0xD8, 0x67, 0xD2, 0x16, 0x4D, 0x06, 
    0xB1, 0x90, 0x81, 0x55, 0x78, 0x32, 0x45, 0x41, 0x2A, 0x83, 0x4B, 0x39, 
    0x46, 0xAE, 0x42, 0x9C, 0x2F, 0xBC, 0xE6, 0x73, 0x67, 0x86, 0x52, 0x5A, 
    0xC6, 0x16, 0x73, 0x65, 0xBF, 0xAE, 0x1D, 0x81, 0x2F, 0x40, 0xDB, 0xF1, 
    0x18, 0x02, 0xE5, 0xA5, 0xCD, 0x8C, 0xC7, 0x2C, 0x3C, 0x40, 0xA7, 0xAD, 
    0xB9, 0xBF, 0xD7, 0xFC, 0x62, 0xA0, 0xD5, 0x5A, 0xC6, 0x57, 0x4B, 0x35, 
    0xE0, 0x63, 0x87, 0x35, 0x81, 0x19, 0xA8, 0x57, 0x98, 0xF9, 0xA8, 0xDF, 
    0x91, 0x02, 0x0A, 0xEA, 0x24, 0xC7, 0xF2, 0x89, 0x05, 0xFB, 0x57, 0x84, 
    0x8A, 0xE1, 0xA6, 0xF0, 0x45, 0x21, 0x7F, 0xA2, 0x25, 0xFF, 0xF4, 0xEB, 
    0x93, 0x3B, 0x4F, 0xB1, 0xF0, 0xD7, 0xBE, 0xB1, 0x57, 0x39, 0xDA, 0x16, 
    0xFC, 0x71, 0x27, 0x51, 0xC7, 0xD2, 0xFB, 0xE3, 0xE0, 0x01, 0xAA, 0xDC, 
    0x7F, 0xC8, 0xC2, 0x64, 0x32, 0x10, 0x4D, 0x30, 0xED, 0x27, 0x65, 0xB8, 
    0xE8, 0xE5, 0xD2, 0x14, 0x6F, 0x64, 0xF7, 0xB5, 0x3A, 0xE7, 0x1A, 0x67, 
    0xCC, 0x98, 0x27, 0x03, 0x16, 0x6A, 0xB6, 0x4D, 0x59, 0x81, 0x48, 0x90, 
    0x1A, 0x64, 0x4B, 0xC3, 0xA6, 0xC7, 0x9E, 0xBC, 0x64, 0x6F, 0xEA, 0x69, 
    0xB0, 0x61, 0x22, 0xE8, 0x4B, 0x8D, 0xB4, 0x07, 0x79, 0x82, 0x46, 0x26, 
    0xCC, 0xFE, 0x6C, 0x29, 0x10, 0xB8, 0x2C, 0xD0, 0x81, 0x20, 0x07, 0xB6, 
    0x14, 0x2F, 0xA8, 0x36, 0xD6, 0x50, 0xD6, 0xDB, 0x8C, 0xF6, 0x15, 0x8C, 
    0xEE, 0x9C, 0x14, 0x5E, 0x04, 0x05, 0x51, 0xB6, 0x1C, 0x06, 0x98, 0x10, 
    0x1C, 0xF4, 0xED, 0x34, 0xA4, 0x6E, 0x1A, 0x5A, 0x04, 0x06, 0x14, 0xCF, 
    0x8D, 0x3F, 0x56, 0xA8, 0xA1, 0xDC, 0x55, 0x04, 0xB2, 0x6F, 0xDD, 0x16, 
    0x05, 0xD1, 0x07, 0x88, 0x0B, 0x24, 0xCD, 0xE9, 0xBB, 0xA6, 0x2D, 0x31, 
    0xC0, 0xC0, 0xEC, 0x30, 0x81, 0xBC, 0xBE, 0x27, 0x9C, 0x48, 0x4F, 0xCF, 
    0xCD, 0xD7, 0xC2, 0x60, 0x19, 0xC5, 0xF6, 0x3A, 0xF8, 0xE9, 0xF8, 0x54, 
    0x07, 0xF3, 0x6B, 0x90, 0x05, 0x2C, 0xF2, 0x23, 0xF2, 0x37, 0x19, 0xEA, 
    0xAC, 0x1E, 0x99, 0xAE, 0xE2, 0x47, 0x61, 0x12, 0xBF, 0x23, 0x81, 0xC6, 
    0xB5, 0xFC, 0x33, 0xA2, 0xFE, 0x58, 0x04, 0xE1, 0x46, 0x0B, 0x2E, 0xC9, 
    0xFD, 0x96, 0xB5, 0xA5, 0xBC, 0xE0, 0x0B, 0x20, 0x33, 0x41, 0xA0, 0xBA, 
    0x4F, 0xD4, 0x46, 0xF8, 0xE1, 0xD5, 0x3E, 0xA7, 0x12, 0x23, 0x92, 0x39, 
    0xCA, 0x30, 0xE5, 0x03, 0x17, 0xAA, 0xF4, 0x81, 0xC5, 0x19, 0x19, 0x20, 
    0x68, 0x4E, 0x5F, 0x96, 0x69, 0xDC, 0x36, 0xF0, 0x5E, 0xB4, 0x5C, 0xFD, 
    0x2D, 0xB5, 0xCE, 0x42, 0x96, 0xE4, 0xC3, 0xCD, 0x44, 0x57, 0x67, 0x3E, 
    0x98, 0x0C, 0x3D, 0xB8, 0xF7, 0xAB, 0x94, 0xBC, 0xB8, 0xAC, 0xF6, 0xA8, 
    0xCF, 0xCD, 0x4D, 0xB9, 0x05, 0x8A, 0xA0, 0x82, 0x60, 0x1C, 0xD2, 0x38, 
    0x16, 0x99, 0xCD, 0x6F, 0xC1, 0xE6, 0x36, 0xF5, 0x92, 0xBB, 0x01, 0x31, 
    0xEC, 0x84, 0xEC, 0x3D, 0x0C, 0xE9, 0x81, 0xC8, 0x5D, 0x84, 0x27, 0xBB, 
    0x40, 0x66, 0x0D, 0xCB, 0xDE, 0xEE, 0xFF, 0xFF, 0x04, 0x00, 0x00, 0x00, 
    0x0C, 0x00, 0x00, 0x00, 0xFF, 0xFF, 0xFF, 0xFF, 0x7E, 0x3E, 0x00, 0x00, 
    0x08, 0x00, 0x00, 0x00, 0xF6, 0xEE, 0xFF, 0xFF, 0x04, 0x00, 0x00, 0x00, 
    0x0C, 0x00, 0x00, 0x00, 0xFF, 0xFF, 0xFF, 0xFF, 0x3F, 0x1F, 0x00, 0x00, 
    0x08, 0x00, 0x00, 0x00, 0x0E, 0xEF, 0xFF, 0xFF, 0x04, 0x00, 0x00, 0x00, 
    0x0C, 0x00, 0x00, 0x00, 0xFF, 0xFF, 0xFF, 0xFF, 0x3D, 0x1F, 0x00, 0x00, 
    0x10, 0x00, 0x00, 0x00, 0x26, 0xEF, 0xFF, 0xFF, 0x04, 0x00, 0x00, 0x00, 
    0x0C, 0x00, 0x00, 0x00, 0xFF, 0xFF, 0xFF, 0xFF, 0x9E, 0x0F, 0x00, 0x00, 
    0x10, 0x00, 0x00, 0x00, 0x3E, 0xEF, 0xFF, 0xFF, 0x04, 0x00, 0x00, 0x00, 
    0x0C, 0x00, 0x00, 0x00, 0xFF, 0xFF, 0xFF, 0xFF, 0x9C, 0x0F, 0x00, 0x00, 
    0x20, 0x00, 0x00, 0x00, 0x56, 0xEF, 0xFF, 0xFF, 0x04, 0x00, 0x00, 0x00, 
    0x0C, 0x00, 0x00, 0x00, 0xFF, 0xFF, 0xFF, 0xFF, 0xCE, 0x07, 0x00, 0x00, 
    0x20, 0x00, 0x00, 0x00, 0x6E, 0xEF, 0xFF, 0xFF, 0x04, 0x00, 0x00, 0x00, 
    0x80, 0x00, 0x00, 0x00, 0x00, 0x00, 0x00, 0x00, 0x00, 0x00, 0x00, 0x00, 
    0x00, 0x00, 0x00, 0x00, 0x00, 0x00, 0x00, 0x00, 0x00, 0x00, 0x00, 0x00, 
    0x00, 0x00, 0x00, 0x00, 0x00, 0x00, 0x00, 0x00, 0x00, 0x00, 0x00, 0x00, 
    0x00, 0x00, 0x00, 0x00, 0x00, 0x00, 0x00, 0x00, 0x00, 0x00, 0x00, 0x00, 
    0x00, 0x00, 0x00, 0x00, 0x00, 0x00, 0x00, 0x00, 0x00, 0x00, 0x00, 0x00, 
    0x00, 0x00, 0x00, 0x00, 0x00, 0x00, 0x00, 0x00, 0x00, 0x00, 0x00, 0x00, 
    0x00, 0x00, 0x00, 0x00, 0x00, 0x00, 0x00, 0x00, 0x00, 0x00, 0x00, 0x00, 
    0x00, 0x00, 0x00, 0x00, 0x00, 0x00, 0x00, 0x00, 0x00, 0x00, 0x00, 0x00, 
    0x00, 0x00, 0x00, 0x00, 0x00, 0x00, 0x00, 0x00, 0x00, 0x00, 0x00, 0x00, 
    0x00, 0x00, 0x00, 0x00, 0x00, 0x00, 0x00, 0x00, 0x00, 0x00, 0x00, 0x00, 
    0x00, 0x00, 0x00, 0x00, 0x00, 0x00, 0x00, 0x00, 0x00, 0x00, 0x00, 0x00, 
    0xFA, 0xEF, 0xFF, 0xFF, 0x04, 0x00, 0x00, 0x00, 0x00, 0x06, 0x00, 0x00, 
    0x03, 0x05, 0x1F, 0x3E, 0xB3, 0x90, 0x7D, 0x3E, 0x1C, 0xD8, 0x8F, 0xBE, 
    0xF8, 0xA9, 0xBC, 0x3D, 0xFF, 0xEA, 0xB9, 0xBD, 0x38, 0xA0, 0xE3, 0xBD, 
    0xE6, 0x0A, 0x58, 0x3E, 0x4F, 0xFA, 0x88, 0xBE, 0x3D, 0x93, 0x89, 0x3E, 
    0x51, 0xC6, 0x6D, 0xBE, 0x78, 0x10, 0x04, 0xBE, 0x3C, 0x49, 0x13, 0xBE, 
    0xD3, 0x1D, 0x9A, 0xBE, 0x0D, 0x5D, 0x3F, 0xBD, 0x36, 0xCD, 0xC7, 0xBD, 
    0x56, 0x11, 0x09, 0xBE, 0xA2, 0x08, 0x51, 0x3C, 0x2F, 0xE1, 0x8C, 0xBE, 
    0x06, 0xB8, 0xBD, 0xBD, 0x1F, 0x77, 0xAC, 0xBD, 0x4B, 0x49, 0x25, 0x3E, 
    0x5A, 0x57, 0xFE, 0xBD, 0xCA, 0xA3, 0x3A, 0x3D, 0xE1, 0xCD, 0x88, 0x3E, 
    0x48, 0xD3, 0x46, 0x3E, 0x01, 0xD9, 0xAC, 0x3D, 0xD9, 0xFF, 0x66, 0x3E, 
    0x2D, 0x1F, 0x01, 0x3E, 0x84, 0xE6, 0xB6, 0xBC, 0x09, 0x42, 0xB4, 0x3C, 
    0xEB, 0xD2, 0x97, 0xBE, 0xF6, 0x73, 0x4F, 0x3E, 0x05, 0xA1, 0x3E, 0x3E, 
    0xDE, 0x6D, 0x1B, 0xBE, 0x7B, 0x46, 0x30, 0x3C, 0x9E, 0xBC, 0xA0, 0x3D, 
    0x52, 0xDA, 0x83, 0x3C, 0x58, 0x25, 0x40, 0xBE, 0x34, 0x95, 0x2B, 0x3B, 
    0x46, 0x0E, 0x2C, 0xBE, 0x80, 0x16, 0x2B, 0xBD, 0xCC, 0x09, 0x1F, 0xBE, 
    0xE2, 0xE9, 0xD4, 0x3D, 0x78, 0x1B, 0x41, 0xBE, 0x91, 0x15, 0x4B, 0x3A, 
    0xF4, 0xA3, 0x8C, 0xBE, 0xF3, 0xE4, 0x22, 0x3E, 0xE1, 0x68, 0x31, 0x3E, 
    0x77, 0xA3, 0x45, 0xBE, 0xEE, 0x0B, 0x89, 0xBE, 0x68, 0xC4, 0x63, 0xBD, 
    0x54, 0x95, 0x00, 0xBE, 0x6C, 0x5D, 0x66, 0xBE, 0x7C, 0x09, 0xCB, 0x3C, 
    0xFB, 0x76, 0x8F, 0xBE, 0xD1, 0x1C, 0x4D, 0x3E, 0x5B, 0x12, 0x01, 0xBE, 
    0x7A, 0x52, 0x8E, 0x3D, 0x66, 0xCB, 0x7B, 0xBE, 0x9D, 0xB4, 0xCA, 0x3D, 
    0x90, 0x3D, 0xB6, 0x3D, 0xFE, 0x9C, 0x8D, 0x3E, 0xEF, 0x08, 0x3E, 0x3C, 
    0x1A, 0x46, 0x6F, 0x3E, 0x39, 0x3C, 0x7C, 0x3E, 0xD7, 0x38, 0x16, 0x3E, 
    0xDE, 0x3B, 0xD6, 0xBC, 0x08, 0x55, 0x1A, 0xBD, 0xAF, 0xA2, 0x91, 0x3E, 
    0x3F, 0xA5, 0x15, 0x3E, 0x98, 0x4F, 0x64, 0xBE, 0xD6, 0xA4, 0xC3, 0x3D, 
    0xD0, 0xC6, 0x7D, 0xBE, 0x57, 0x53, 0x31, 0x3E, 0x17, 0xD9, 0x35, 0x3E, 
    0xEE, 0x86, 0x9E, 0xBD, 0x09, 0x65, 0xB4, 0x3D, 0x14, 0x15, 0xBB, 0x3C, 
    0x7C, 0xFC, 0x85, 0xBE, 0x24, 0x2C, 0x84, 0x3D, 0x7F, 0xDE, 0x88, 0x3E, 
    0x26, 0x34, 0x5D, 0xBE, 0xF0, 0x23, 0x70, 0xBE, 0x6B, 0x13, 0x74, 0x3E, 
    0x33, 0x68, 0x89, 0x3E, 0x11, 0xD0, 0xD0, 0x3D, 0x86, 0xAF, 0x56, 0xBE, 
    0x92, 0x20, 0x1C, 0x3E, 0x52, 0x61, 0x37, 0x3A, 0x2B, 0xCA, 0x31, 0xBE, 
    0x39, 0x1E, 0x1F, 0x3E, 0xD4, 0x06, 0x0A, 0xBC, 0xC8, 0x96, 0x95, 0x3D, 
    0x91, 0xF7, 0x42, 0x3E, 0xEB, 0x1D, 0x87, 0x3C, 0x94, 0xC1, 0xC9, 0x3D, 
    0xC4, 0x20, 0x9E, 0xBE, 0xC0, 0x2C, 0x44, 0xBD, 0xAF, 0x06, 0x9A, 0xBE, 
    0xEF, 0x74, 0x13, 0x3E, 0x45, 0xB0, 0x03, 0x3E, 0xAA, 0xEB, 0x34, 0xBE, 
    0x18, 0xD2, 0xF5, 0xBC, 0x9C, 0x07, 0x2E, 0x3E, 0x1A, 0x33, 0xD4, 0x3C, 
    0x25, 0xF9, 0xE4, 0xBD, 0x5C, 0xAD, 0x11, 0x3E, 0xE5, 0x3F, 0x5C, 0x3E, 
    0x15, 0x57, 0x44, 0xBE, 0x46, 0xB5, 0x16, 0xBE, 0x3A, 0x00, 0x0C, 0xBE, 
    0x3A, 0x7E, 0x95, 0x3E, 0x2D, 0x3E, 0x53, 0xBE, 0xBB, 0x7F, 0xE6, 0xBD, 
    0x05, 0xFA, 0x9C, 0x3D, 0x01, 0x37, 0x16, 0xBE, 0x4F, 0x8E, 0xD9, 0x3D, 
    0xB8, 0xD1, 0xD2, 0x3D, 0xA8, 0xC2, 0x4C, 0x3E, 0x00, 0x4F, 0x7F, 0xBD, 
    0x28, 0x51, 0x69, 0xBE, 0x59, 0x98, 0x64, 0x3E, 0xC4, 0xDA, 0x88, 0xBC, 
    0x46, 0xC7, 0x7C, 0x3E, 0x7F, 0x31, 0x1B, 0x3E, 0xD7, 0x67, 0x6F, 0x3E, 
    0x05, 0xE7, 0xD0, 0x3D, 0xC9, 0xF9, 0x3B, 0xBE, 0xBD, 0xB4, 0x67, 0xBE, 
    0xB2, 0x98, 0x24, 0x3E, 0x40, 0xF9, 0x81, 0xBE, 0x26, 0x28, 0x62, 0xBE, 
    0x6D, 0xE5, 0xA6, 0xBC, 0xA7, 0x8C, 0x12, 0x3E, 0xDC, 0xD4, 0x49, 0xBD, 
    0x44, 0x1A, 0xD3, 0x3B, 0x0D, 0xE1, 0x45, 0xBE, 0x74, 0x62, 0x30, 0x3E, 
    0x2F, 0xFE, 0x6B, 0xBE, 0xF6, 0xA1, 0x13, 0xBE, 0x9E, 0x6E, 0xAD, 0x3D, 
    0x90, 0x4F, 0xB8, 0xBB, 0x2D, 0xDD, 0x00, 0x3E, 0x3B, 0xC5, 0x68, 0xBD, 
    0x23, 0xAC, 0x8D, 0x3E, 0x90, 0x9F, 0xCD, 0x3D, 0xC7, 0x32, 0x46, 0xBE, 
    0x9F, 0x04, 0x82, 0xBE, 0x61, 0x54, 0x88, 0x3C, 0xA3, 0x85, 0x78, 0xBE, 
    0x34, 0x1F, 0x1C, 0x3B, 0x6E, 0x92, 0xFF, 0x3D, 0x1E, 0x68, 0x59, 0xBB, 
    0x9A, 0x2A, 0x21, 0x3E, 0x8F, 0x16, 0x3B, 0xBD, 0x57, 0x35, 0x47, 0x3E, 
    0xE5, 0xC2, 0xB4, 0xBD, 0xE7, 0x82, 0xED, 0xBD, 0x48, 0x9A, 0x60, 0x3E, 
    0xD2, 0xD2, 0x87, 0x3E, 0xE2, 0x61, 0x81, 0xBE, 0x36, 0x12, 0xEC, 0xBB, 
    0xB4, 0x9B, 0x77, 0xBE, 0xFE, 0xAB, 0x10, 0xBD, 0x03, 0x7C, 0xE9, 0xBD, 
    0xCD, 0xC7, 0x10, 0x3E, 0xBD, 0x95, 0xFC, 0xBC, 0xD4, 0xCE, 0x53, 0xBD, 
    0x5B, 0xD1, 0x13, 0xBD, 0xC7, 0xF4, 0xF6, 0x3D, 0x78, 0x4A, 0x2B, 0xBE, 
    0x92, 0x77, 0x25, 0xBE, 0x30, 0x3C, 0xC4, 0xBD, 0x44, 0xCB, 0x06, 0xBE, 
    0xE5, 0xBF, 0x50, 0xBD, 0x6E, 0x38, 0xCB, 0xBD, 0x8B, 0xCF, 0xEA, 0xBD, 
    0x83, 0x55, 0xDE, 0x3D, 0x0C, 0x4D, 0x05, 0x3E, 0x2B, 0x15, 0x27, 0x3E, 
    0x86, 0x4A, 0x5D, 0x3E, 0x23, 0x54, 0x7B, 0xBE, 0x6F, 0x22, 0x8C, 0x3C, 
    0x62, 0x47, 0x47, 0xBD, 0xF5, 0x3D, 0xF0, 0xBD, 0xF4, 0x55, 0xDB, 0x3D, 
    0xEE, 0x8A, 0xCB, 0xBD, 0x5C, 0xA6, 0x6D, 0xBE, 0x2C, 0x93, 0x9C, 0x3D, 
    0x0E, 0x1D, 0x56, 0xBE, 0xF4, 0xE4, 0x84, 0xBD, 0xD9, 0x3B, 0x44, 0x3E, 
    0xC1, 0x04, 0x9E, 0xBE, 0x8D, 0xA3, 0x16, 0x3E, 0x0D, 0x7D, 0x08, 0xBE, 
    0x71, 0xC3, 0x9D, 0xBD, 0x3B, 0x36, 0xD6, 0x3D, 0xE7, 0x99, 0xE7, 0xBC, 
    0x2E, 0x9A, 0x01, 0x3E, 0x07, 0xCF, 0x8F, 0xBD, 0x31, 0xD6, 0x57, 0x3E, 
    0xE4, 0xB9, 0x21, 0xBE, 0x3D, 0xC5, 0x0C, 0x3D, 0x5E, 0x22, 0x94, 0xBE, 
    0x55, 0x6F, 0xBD, 0xBD, 0x90, 0x42, 0x9A, 0xBE, 0x6D, 0x47, 0x75, 0x3D, 
    0x8B, 0x0C, 0xA8, 0xBD, 0x50, 0x4B, 0xB3, 0xBD, 0x9E, 0x56, 0x89, 0xBE, 
    0x07, 0x17, 0xBB, 0x3D, 0xFC, 0x1A, 0xE0, 0xBD, 0x1D, 0xC0, 0x58, 0x3E, 
    0x78, 0x11, 0xE2, 0x3D, 0x35, 0x74, 0x84, 0x3E, 0x63, 0xDD, 0x49, 0xBD, 
    0xD4, 0xCD, 0x29, 0xBE, 0xDB, 0x3A, 0x5D, 0xBE, 0xEC, 0x16, 0x0C, 0x3E, 
    0x21, 0x49, 0x8A, 0x3E, 0x52, 0x81, 0xE4, 0x3D, 0x82, 0xF6, 0xBE, 0x3D, 
    0xC5, 0xDA, 0x89, 0x3B, 0x95, 0xC7, 0x7F, 0x3D, 0xAE, 0x7C, 0x20, 0x3D, 
    0x5E, 0xEA, 0x18, 0xBE, 0x14, 0x6C, 0x35, 0xBC, 0x14, 0x85, 0x36, 0x3E, 
    0xF3, 0xB0, 0xAE, 0x3C, 0x26, 0x3E, 0x87, 0xBE, 0x45, 0xD2, 0xBE, 0xBD, 
    0x99, 0xA8, 0xAA, 0xBC, 0x01, 0xAE, 0x39, 0x3E, 0x1B, 0x1A, 0x70, 0x3E, 
    0xDC, 0xAD, 0x6B, 0xBE, 0xEA, 0x70, 0x32, 0x3E, 0x6C, 0x9E, 0x7F, 0xBD, 
    0x23, 0xF4, 0x56, 0xBD, 0x9D, 0x49, 0x1D, 0xBE, 0xA0, 0xD6, 0x60, 0x3E, 
    0x3E, 0x18, 0x5C, 0x3E, 0x69, 0x8E, 0x87, 0x3D, 0x44, 0xE3, 0x9C, 0xBE, 
    0x47, 0x89, 0x45, 0xBC, 0xCF, 0x89, 0x8D, 0xBE, 0x80, 0x99, 0x88, 0xBE, 
    0x28, 0x53, 0x4A, 0xBD, 0x32, 0xF2, 0x78, 0x3E, 0x88, 0xD7, 0x48, 0xBE, 
    0x5D, 0xD3, 0x17, 0x3E, 0xF7, 0xC1, 0x82, 0xBE, 0x1F, 0x56, 0x27, 0xBC, 
    0xC7, 0x4A, 0x41, 0xBD, 0x9A, 0xBA, 0x5D, 0x3E, 0x47, 0xF7, 0x55, 0x3E, 
    0xE0, 0x5E, 0xA6, 0x3D, 0x7C, 0xE3, 0x37, 0x3E, 0xF6, 0xA5, 0x8A, 0x3E, 
    0x2C, 0xB8, 0x86, 0xBE, 0xDB, 0x0E, 0x74, 0x3E, 0x68, 0xB5, 0x08, 0xBE, 
    0x01, 0xCF, 0x50, 0x3E, 0xB2, 0xD4, 0x3E, 0xBE, 0xCB, 0xF2, 0xD0, 0xBC, 
    0xD6, 0xC4, 0x02, 0x3E, 0x53, 0x64, 0x04, 0x3D, 0x2C, 0x7B, 0x5C, 0xBE, 
    0xE4, 0x78, 0x58, 0x3E, 0x0E, 0x46, 0x20, 0xBE, 0x06, 0x62, 0x91, 0xBE, 
    0xC7, 0xEE, 0x85, 0xBD, 0x6A, 0x54, 0x77, 0xBC, 0xBA, 0x6E, 0x44, 0x3E, 
    0x85, 0x63, 0x89, 0x3D, 0x71, 0x12, 0xBE, 0xBC, 0x3A, 0x7A, 0x07, 0xBE, 
    0x41, 0x0F, 0x88, 0x3E, 0xF5, 0x8F, 0x5D, 0x3E, 0x51, 0x10, 0x7C, 0x3E, 
    0x49, 0xC8, 0x87, 0x3E, 0xF2, 0x13, 0x64, 0x3C, 0xEF, 0x22, 0x6A, 0x3D, 
    0x62, 0xF0, 0xBD, 0xBD, 0xDA, 0x2A, 0xDC, 0x3D, 0xFF, 0x0F, 0xE6, 0x3D, 
    0x17, 0xD2, 0xEA, 0xBC, 0x5A, 0x46, 0x9F, 0xBE, 0x9B, 0xAE, 0x3D, 0x3E, 
    0x6B, 0xEB, 0x5D, 0x3E, 0xEA, 0x45, 0x74, 0x3D, 0xF9, 0x5E, 0x1E, 0x3E, 
    0x45, 0x87, 0x75, 0x3D, 0x8C, 0xAE, 0x4C, 0xBE, 0xEF, 0x1C, 0x20, 0xBE, 
    0x62, 0xB7, 0x88, 0xBD, 0xCE, 0x75, 0x0A, 0x3E, 0x0A, 0x63, 0xF4, 0xBD, 
    0xDD, 0x0E, 0xB5, 0xBA, 0x8F, 0x52, 0x20, 0x3E, 0xA5, 0xF9, 0x35, 0x3E, 
    0x84, 0x47, 0x17, 0xBE, 0xE2, 0x03, 0x49, 0xBE, 0xAC, 0x85, 0x35, 0x3D, 
    0x31, 0xAE, 0x8A, 0xBD, 0x81, 0x95, 0x56, 0xBD, 0x8F, 0x3F, 0x8B, 0xBE, 
    0x35, 0xE3, 0x98, 0x3D, 0x0A, 0x47, 0x8F, 0x3E, 0xD6, 0xF4, 0x73, 0x3E, 
    0x12, 0xD2, 0x3F, 0xBE, 0xF5, 0x4F, 0x92, 0xBD, 0xD0, 0x9D, 0x5B, 0x3D, 
    0x65, 0x36, 0x05, 0x3E, 0xE0, 0x7F, 0xBE, 0xBD, 0xD4, 0xDD, 0x32, 0xBE, 
    0xF3, 0x86, 0x8D, 0xBE, 0x14, 0x64, 0x80, 0x3E, 0xEE, 0xD6, 0x80, 0xBB, 
    0xCC, 0xB4, 0x90, 0xBD, 0x9F, 0xD8, 0x5F, 0xBE, 0x6E, 0xE2, 0x0A, 0xBD, 
    0x26, 0xBF, 0x09, 0x3E, 0xD1, 0x42, 0x27, 0x3E, 0x30, 0x05, 0x7D, 0xBE, 
    0x31, 0xAD, 0x5A, 0xBE, 0xE3, 0x7B, 0xB5, 0x3C, 0xCE, 0x97, 0x43, 0x3E, 
    0x2A, 0xD1, 0xEB, 0x3D, 0xD1, 0xEF, 0x81, 0x3C, 0x9E, 0x2C, 0x5A, 0xBE, 
    0x1B, 0x5C, 0x23, 0xBE, 0xC3, 0x6F, 0xAB, 0x3B, 0x8B, 0x43, 0x6C, 0xBE, 
    0xAE, 0xB0, 0x32, 0x3E, 0x9A, 0xFD, 0x77, 0x3E, 0xD4, 0x18, 0x95, 0xBE, 
    0x8C, 0xD6, 0xA7, 0xBC, 0x8B, 0x66, 0x89, 0x3C, 0x6B, 0x84, 0x15, 0xBE, 
    0x77, 0xD0, 0x9D, 0xBC, 0xA1, 0x38, 0xFD, 0xBD, 0x12, 0x44, 0x06, 0x3C, 
    0x33, 0x12, 0x8F, 0xBC, 0x92, 0xAD, 0x11, 0xBB, 0xD8, 0xF4, 0xE3, 0x3B, 
    0xAD, 0x87, 0xDE, 0xBD, 0x86, 0xBA, 0xB1, 0x3D, 0x48, 0x7C, 0x45, 0x3D, 
    0x38, 0x04, 0x63, 0xBE, 0xE3, 0x8F, 0x19, 0xBE, 0x4D, 0x35, 0x3C, 0x3D, 
    0x47, 0x0E, 0xBD, 0x3D, 0xB4, 0x93, 0x37, 0x3B, 0xF4, 0x2C, 0x05, 0x3D, 
    0xDE, 0xB1, 0x4A, 0xBE, 0xB9, 0xAA, 0x41, 0xBE, 0xD8, 0x24, 0x17, 0x3E, 
    0x94, 0x07, 0x8A, 0xBE, 0x73, 0xC3, 0xBB, 0xBD, 0x3A, 0x42, 0x6B, 0x3E, 
    0x9C, 0x56, 0x2F, 0x3E, 0xBC, 0xBF, 0x75, 0xBE, 0xBD, 0x9B, 0x94, 0xB9, 
    0xC4, 0xD7, 0xC8, 0xBD, 0x91, 0xF0, 0x80, 0xBE, 0x66, 0xD6, 0x8F, 0xBE, 
    0x47, 0x2F, 0x7B, 0x3D, 0xC2, 0x61, 0x06, 0xBE, 0x51, 0x50, 0x03, 0xBE, 
    0x8E, 0x43, 0x9D, 0xBE, 0xF6, 0xCA, 0x34, 0x3E, 0x84, 0xB8, 0xFA, 0xBD, 
    0x0C, 0xD5, 0x01, 0xBE, 0x03, 0x3B, 0x62, 0xBE, 0x5A, 0x24, 0x2F, 0xBD, 
    0x89, 0xC5, 0x49, 0xBD, 0x34, 0x7C, 0x8B, 0x3E, 0x3C, 0x17, 0x7B, 0xBD, 
    0x9A, 0xB9, 0x94, 0x3D, 0xCF, 0xC3, 0x06, 0x3E, 0x17, 0x62, 0x33, 0x3D, 
    0xB1, 0x10, 0x1B, 0xBE, 0x71, 0x2E, 0x67, 0x3E, 0xA6, 0x8F, 0x08, 0xBE, 
    0x06, 0xF6, 0xFF, 0xFF, 0x04, 0x00, 0x00, 0x00, 0x40, 0x00, 0x00, 0x00, 
    0x00, 0x00, 0x00, 0x00, 0x00, 0x00, 0x00, 0x00, 0x00, 0x00, 0x00, 0x00, 
    0x00, 0x00, 0x00, 0x00, 0x00, 0x00, 0x00, 0x00, 0x00, 0x00, 0x00, 0x00, 
    0x00, 0x00, 0x00, 0x00, 0x00, 0x00, 0x00, 0x00, 0x00, 0x00, 0x00, 0x00, 
    0x00, 0x00, 0x00, 0x00, 0x00, 0x00, 0x00, 0x00, 0x00, 0x00, 0x00, 0x00, 
    0x00, 0x00, 0x00, 0x00, 0x00, 0x00, 0x00, 0x00, 0x00, 0x00, 0x00, 0x00, 
    0x00, 0x00, 0x00, 0x00, 0x52, 0xF6, 0xFF, 0xFF, 0x04, 0x00, 0x00, 0x00, 
    0x60, 0x00, 0x00, 0x00, 0xA6, 0xA6, 0xE1, 0x3D, 0x87, 0x91, 0x9A, 0x3E, 
    0x0A, 0xEB, 0x54, 0xBE, 0x06, 0x6C, 0xB8, 0xBE, 0xF6, 0x07, 0xE3, 0xBC, 
    0xB4, 0x70, 0x63, 0x3D, 0xFB, 0x1B, 0x46, 0x3E, 0xC1, 0x5B, 0xD7, 0x3D, 
    0xC8, 0x79, 0xF3, 0xBC, 0x86, 0xAD, 0x9D, 0x3E, 0x94, 0xE6, 0x0C, 0x3E, 
    0x71, 0xBD, 0x4E, 0x3D, 0x94, 0x4E, 0xF5, 0xBD, 0x36, 0x4F, 0x1A, 0x3E, 
    0x4E, 0xF6, 0xC7, 0xBE, 0x16, 0x72, 0x98, 0x3D, 0x5A, 0x72, 0x8D, 0x3A, 
    0x11, 0xEB, 0x45, 0x3E, 0xC4, 0x7D, 0x6D, 0x3E, 0xD1, 0xDB, 0x88, 0xBB, 
    0x34, 0x77, 0xE6, 0x3E, 0x75, 0xB0, 0x4F, 0xBE, 0x64, 0x20, 0xE5, 0x3D, 
    0xF8, 0x62, 0x28, 0x3E, 0xBE, 0xF6, 0xFF, 0xFF, 0x04, 0x00, 0x00, 0x00, 
    0x20, 0x00, 0x00, 0x00, 0x00, 0x00, 0x00, 0x00, 0x00, 0x00, 0x00, 0x00, 
    0x00, 0x00, 0x00, 0x00, 0x00, 0x00, 0x00, 0x00, 0x00, 0x00, 0x00, 0x00, 
    0x00, 0x00, 0x00, 0x00, 0x00, 0x00, 0x00, 0x00, 0x00, 0x00, 0x00, 0x00, 
    0xEA, 0xF6, 0xFF, 0xFF, 0x04, 0x00, 0x00, 0x00, 0x00, 0x01, 0x00, 0x00, 
    0x7D, 0xF8, 0xA6, 0x3E, 0x3E, 0xA0, 0x1B, 0xBE, 0xA8, 0x00, 0x28, 0xBE, 
    0x92, 0x0D, 0x4C, 0x3D, 0xB8, 0xE0, 0x20, 0x3E, 0xFE, 0x46, 0x22, 0x3E, 
    0x3B, 0xB8, 0xBF, 0x3D, 0xD3, 0x62, 0x88, 0xBE, 0x46, 0x05, 0x8C, 0x3E, 
    0x09, 0x57, 0x53, 0x3E, 0x3C, 0xDE, 0x30, 0xBE, 0xC7, 0xEB, 0x57, 0x3E, 
    0xF2, 0x53, 0xA9, 0xBE, 0xF6, 0x0D, 0xB0, 0xBE, 0xA1, 0xD7, 0x0E, 0x3E, 
    0x84, 0xF6, 0xCB, 0x3C, 0xF4, 0x00, 0x20, 0xBE, 0xE3, 0x22, 0x79, 0xBD, 
    0x5B, 0xCE, 0x99, 0x3E, 0x10, 0x7B, 0xA1, 0xBD, 0xBE, 0x43, 0x1D, 0xBE, 
    0x87, 0x96, 0xC0, 0x3E, 0xF5, 0x20, 0x0A, 0xBE, 0xAD, 0x12, 0x59, 0xBE, 
    0xEE, 0x13, 0x9A, 0xBE, 0x16, 0xA3, 0xAE, 0x3E, 0xB6, 0xC8, 0xA1, 0x3D, 
    0x00, 0xD5, 0xD3, 0x3E, 0xD5, 0xFC, 0xC9, 0xBB, 0xD1, 0xE0, 0x7B, 0x3E, 
    0x12, 0x46, 0x0A, 0xBE, 0x98, 0x52, 0x37, 0xBD, 0x12, 0x5D, 0xB1, 0x3D, 
    0xC0, 0x97, 0xCC, 0x3D, 0xB1, 0xA1, 0x78, 0x3E, 0xEE, 0x21, 0x59, 0x3D, 
    0xAE, 0x9B, 0xB5, 0xBE, 0x9A, 0x2E, 0xBA, 0x3E, 0x3C, 0x85, 0x60, 0xBC, 
    0x69, 0xD2, 0xE2, 0xBD, 0xB1, 0xDA, 0xD7, 0xBC, 0x15, 0x61, 0x0F, 0xBE, 
    0x5F, 0x90, 0xBB, 0x3E, 0xB3, 0x0A, 0x73, 0x3E, 0x4F, 0x12, 0xC7, 0x3E, 
    0xB6, 0x89, 0xD7, 0xBE, 0x07, 0xD2, 0xB6, 0x3E, 0xBF, 0xB5, 0x1B, 0xBE, 
    0xC5, 0x77, 0x99, 0xBE, 0x76, 0x78, 0x1C, 0x3C, 0x87, 0x15, 0x87, 0xBE, 
    0x98, 0x1F, 0x9A, 0xBD, 0xA0, 0x06, 0xAD, 0xBE, 0x62, 0x82, 0x86, 0xBD, 
    0x5B, 0xD8, 0x1C, 0xBE, 0xC3, 0xAC, 0x63, 0xBD, 0x54, 0x36, 0xED, 0x3D, 
    0x5D, 0x1B, 0xE7, 0x3D, 0x63, 0x43, 0xC5, 0xBD, 0x21, 0x4C, 0x48, 0x3E, 
    0x6C, 0xA9, 0x0C, 0x3E, 0x43, 0x44, 0x68, 0xBE, 0x4E, 0x6B, 0xB3, 0xBE, 
    0x49, 0xBB, 0x0A, 0xBE, 0xF6, 0xF7, 0xFF, 0xFF, 0x04, 0x00, 0x00, 0x00, 
    0x80, 0x00, 0x00, 0x00, 0xA7, 0x91, 0x20, 0xBE, 0xA9, 0x66, 0x7F, 0xBB, 
    0x33, 0x53, 0x48, 0xBE, 0x7A, 0x8A, 0xD2, 0x3B, 0x28, 0x99, 0x5E, 0xBD, 
    0x4A, 0x7D, 0x22, 0x3E, 0x39, 0x5F, 0x08, 0xBE, 0xC4, 0x0A, 0x60, 0xBE, 
    0xCF, 0x10, 0xDE, 0x3D, 0x17, 0x7E, 0x25, 0x3E, 0x69, 0x99, 0xB8, 0x3D, 
    0x71, 0x10, 0x36, 0xBE, 0xF8, 0x61, 0xFF, 0xBD, 0xD1, 0xA1, 0x83, 0x3E, 
    0xEB, 0x19, 0x47, 0xBE, 0x16, 0x58, 0x0F, 0xBE, 0x02, 0xEF, 0xA6, 0x3D, 
    0x3B, 0xC2, 0x6A, 0x3E, 0x3D, 0x5B, 0x19, 0x3E, 0xB9, 0xE3, 0x38, 0xBD, 
    0xF3, 0x0D, 0x3A, 0xBE, 0x6C, 0x12, 0xB2, 0xBD, 0xE6, 0xB6, 0x1E, 0xBE, 
    0xF4, 0xEC, 0xC1, 0xBD, 0x3D, 0x1A, 0xD4, 0x3D, 0x5A, 0xC1, 0x3D, 0xBE, 
    0xDE, 0xDF, 0x22, 0x3C, 0xB4, 0x5E, 0x25, 0xBE, 0x50, 0x95, 0x4D, 0xBE, 
    0xBB, 0x79, 0x05, 0xBC, 0x8D, 0x45, 0xF1, 0xBD, 0x2E, 0x65, 0x46, 0xBE, 
    0x82, 0xF8, 0xFF, 0xFF, 0x04, 0x00, 0x00, 0x00, 0x40, 0x00, 0x00, 0x00, 
    0xA5, 0xEE, 0x32, 0x3E, 0xFC, 0x82, 0x17, 0xBE, 0x87, 0xF1, 0x51, 0xBE, 
    0x83, 0xD2, 0xDB, 0xBD, 0x51, 0x65, 0x50, 0xBE, 0x6E, 0x1E, 0x37, 0xBE, 
    0x79, 0x28, 0x2B, 0x3E, 0x7F, 0x69, 0x95, 0xBD, 0x6A, 0xB0, 0x09, 0xBD, 
    0x5C, 0xDA, 0x0B, 0x3E, 0x83, 0x83, 0x35, 0xBE, 0xDB, 0x28, 0x17, 0xBE, 
    0x02, 0x9C, 0x1A, 0x3D, 0xAF, 0x6F, 0xD0, 0xBC, 0x39, 0xB3, 0x2C, 0xBB, 
    0x57, 0x86, 0x27, 0x3E, 0xCE, 0xF8, 0xFF, 0xFF, 0x04, 0x00, 0x00, 0x00, 
    0x20, 0x00, 0x00, 0x00, 0xC1, 0xF1, 0x75, 0x3C, 0xF7, 0x08, 0x29, 0xBE, 
    0xCC, 0xC0, 0xEB, 0x3D, 0xB5, 0xAA, 0xE2, 0xBC, 0x05, 0xA1, 0x30, 0xBE, 
    0xC8, 0x13, 0x14, 0xBE, 0xBB, 0xE4, 0xF2, 0x3D, 0x86, 0x6F, 0x19, 0xBE, 
    0xFA, 0xF8, 0xFF, 0xFF, 0x04, 0x00, 0x00, 0x00, 0x08, 0x00, 0x00, 0x00, 
    0x71, 0x07, 0x62, 0xBE, 0x72, 0x07, 0x62, 0x3E, 0x0E, 0xF9, 0xFF, 0xFF, 
    0x04, 0x00, 0x00, 0x00, 0x80, 0x00, 0x00, 0x00, 0x4D, 0xFB, 0x29, 0xBE, 
    0x87, 0x83, 0x83, 0x3E, 0x86, 0xB7, 0x4E, 0x3E, 0x28, 0x57, 0x44, 0x3C, 
    0x90, 0x5B, 0x97, 0xBD, 0x82, 0x87, 0xBA, 0x3D, 0x5B, 0xAC, 0x86, 0xBE, 
    0xFE, 0x49, 0x66, 0x3E, 0x79, 0x26, 0x5E, 0xBE, 0xE4, 0x05, 0x81, 0xBD, 
    0x63, 0x53, 0xBD, 0x3C, 0x77, 0xF7, 0x57, 0x3E, 0xA6, 0xDD, 0x9D, 0xBB, 
    0x0F, 0xE2, 0x77, 0xBE, 0x98, 0x51, 0x56, 0x3E, 0xDA, 0x3E, 0x1D, 0xBE, 
    0xA1, 0x31, 0xD8, 0xBD, 0x0A, 0x34, 0x52, 0x3C, 0x0F, 0x04, 0x78, 0xBD, 
    0xCF, 0x19, 0x11, 0x3E, 0x3C, 0x16, 0x2F, 0xBE, 0xD5, 0xEF, 0x57, 0xBE, 
    0x56, 0x1A, 0x2B, 0xBE, 0x31, 0x15, 0x9E, 0x3E, 0x37, 0x7D, 0x24, 0x3E, 
    0xC2, 0xDE, 0x64, 0xBE, 0x0C, 0x7D, 0x81, 0xBD, 0x77, 0x34, 0x7E, 0xBE, 
    0xF9, 0x2A, 0xA2, 0x3E, 0xD3, 0x0F, 0x7D, 0xBE, 0xEE, 0xC4, 0x70, 0xBD, 
    0x9F, 0x09, 0x07, 0xBE, 0x64, 0xE0, 0xFF, 0xFF, 0x9E, 0xF9, 0xFF, 0xFF, 
    0x04, 0x00, 0x00, 0x00, 0x04, 0x00, 0x00, 0x00, 0x00, 0x00, 0x00, 0x00, 
    0xAE, 0xF9, 0xFF, 0xFF, 0x04, 0x00, 0x00, 0x00, 0x04, 0x00, 0x00, 0x00, 
    0x80, 0x3E, 0x00, 0x00, 0xBE, 0xF9, 0xFF, 0xFF, 0x04, 0x00, 0x00, 0x00, 
    0x04, 0x00, 0x00, 0x00, 0x01, 0x00, 0x00, 0x00, 0xCE, 0xF9, 0xFF, 0xFF, 
    0x04, 0x00, 0x00, 0x00, 0x04, 0x00, 0x00, 0x00, 0xFD, 0xFF, 0xFF, 0xFF, 
    0xA8, 0xE0, 0xFF, 0xFF, 0xAC, 0xE0, 0xFF, 0xFF, 0x0F, 0x00, 0x00, 0x00, 
    0x4D, 0x4C, 0x49, 0x52, 0x20, 0x43, 0x6F, 0x6E, 0x76, 0x65, 0x72, 0x74, 
    0x65, 0x64, 0x2E, 0x00, 0x01, 0x00, 0x00, 0x00, 0x14, 0x00, 0x00, 0x00, 
    0x00, 0x00, 0x0E, 0x00, 0x18, 0x00, 0x14, 0x00, 0x10, 0x00, 0x0C, 0x00, 
    0x08, 0x00, 0x04, 0x00, 0x0E, 0x00, 0x00, 0x00, 0x14, 0x00, 0x00, 0x00, 
    0x1C, 0x00, 0x00, 0x00, 0xA8, 0x06, 0x00, 0x00, 0xAC, 0x06, 0x00, 0x00, 
    0xB0, 0x06, 0x00, 0x00, 0x04, 0x00, 0x00, 0x00, 0x6D, 0x61, 0x69, 0x6E, 
    0x00, 0x00, 0x00, 0x00, 0x1D, 0x00, 0x00, 0x00, 0x58, 0x06, 0x00, 0x00, 
    0xF8, 0x05, 0x00, 0x00, 0xA4, 0x05, 0x00, 0x00, 0x7C, 0x05, 0x00, 0x00, 
    0x3C, 0x05, 0x00, 0x00, 0xEC, 0x04, 0x00, 0x00, 0xC4, 0x04, 0x00, 0x00, 
    0x8C, 0x04, 0x00, 0x00, 0x58, 0x04, 0x00, 0x00, 0x04, 0x04, 0x00, 0x00, 
    0xDC, 0x03, 0x00, 0x00, 0xA8, 0x03, 0x00, 0x00, 0x64, 0x03, 0x00, 0x00, 
    0x3C, 0x03, 0x00, 0x00, 0x04, 0x03, 0x00, 0x00, 0xD0, 0x02, 0x00, 0x00, 
    0x8C, 0x02, 0x00, 0x00, 0x64, 0x02, 0x00, 0x00, 0x30, 0x02, 0x00, 0x00, 
    0xEC, 0x01, 0x00, 0x00, 0xC4, 0x01, 0x00, 0x00, 0x8C, 0x01, 0x00, 0x00, 
    0x58, 0x01, 0x00, 0x00, 0x14, 0x01, 0x00, 0x00, 0xEC, 0x00, 0x00, 0x00, 
    0xB8, 0x00, 0x00, 0x00, 0x70, 0x00, 0x00, 0x00, 0x38, 0x00, 0x00, 0x00, 
    0x04, 0x00, 0x00, 0x00, 0x86, 0xFA, 0xFF, 0xFF, 0x14, 0x00, 0x00, 0x00, 
    0x00, 0x00, 0x00, 0x09, 0x14, 0x00, 0x00, 0x00, 0x18, 0x00, 0x00, 0x00, 
    0x0A, 0x00, 0x00, 0x00, 0xC6, 0xFA, 0xFF, 0xFF, 0x00, 0x00, 0x80, 0x3F, 
    0x01, 0x00, 0x00, 0x00, 0x35, 0x00, 0x00, 0x00, 0x01, 0x00, 0x00, 0x00, 
    0x34, 0x00, 0x00, 0x00, 0xB6, 0xFA, 0xFF, 0xFF, 0x14, 0x00, 0x00, 0x00, 
    0x00, 0x00, 0x00, 0x08, 0x10, 0x00, 0x00, 0x00, 0x14, 0x00, 0x00, 0x00, 
    0x09, 0x00, 0x00, 0x00, 0xC0, 0xE1, 0xFF, 0xFF, 0x01, 0x00, 0x00, 0x00, 
    0x34, 0x00, 0x00, 0x00, 0x03, 0x00, 0x00, 0x00, 0x33, 0x00, 0x00, 0x00, 
    0x0B, 0x00, 0x00, 0x00, 0x07, 0x00, 0x00, 0x00, 0xEA, 0xFA, 0xFF, 0xFF, 
    0x20, 0x00, 0x00, 0x00, 0x00, 0x00, 0x00, 0x08, 0x20, 0x00, 0x00, 0x00, 
    0x24, 0x00, 0x00, 0x00, 0x09, 0x00, 0x00, 0x00, 0x0C, 0x00, 0x08, 0x00, 
    0x07, 0x00, 0x00, 0x00, 0x00, 0x00, 0x06, 0x00, 0x0C, 0x00, 0x00, 0x00, 
    0x00, 0x00, 0x01, 0x01, 0x01, 0x00, 0x00, 0x00, 0x33, 0x00, 0x00, 0x00, 
    0x03, 0x00, 0x00, 0x00, 0x32, 0x00, 0x00, 0x00, 0x18, 0x00, 0x00, 0x00, 
    0x06, 0x00, 0x00, 0x00, 0x2E, 0xFB, 0xFF, 0xFF, 0x14, 0x00, 0x00, 0x00, 
    0x00, 0x00, 0x00, 0x1B, 0x10, 0x00, 0x00, 0x00, 0x14, 0x00, 0x00, 0x00, 
    0x08, 0x00, 0x00, 0x00, 0x38, 0xE2, 0xFF, 0xFF, 0x01, 0x00, 0x00, 0x00, 
    0x32, 0x00, 0x00, 0x00, 0x02, 0x00, 0x00, 0x00, 0x31, 0x00, 0x00, 0x00, 
    0x02, 0x00, 0x00, 0x00, 0xCE, 0xFB, 0xFF, 0xFF, 0x0C, 0x00, 0x00, 0x00, 
    0x10, 0x00, 0x00, 0x00, 0x03, 0x00, 0x00, 0x00, 0x01, 0x00, 0x00, 0x00, 
    0x31, 0x00, 0x00, 0x00, 0x02, 0x00, 0x00, 0x00, 0x30, 0x00, 0x00, 0x00, 
    0x11, 0x00, 0x00, 0x00, 0x82, 0xFB, 0xFF, 0xFF, 0x14, 0x00, 0x00, 0x00, 
    0x00, 0x00, 0x00, 0x05, 0x24, 0x00, 0x00, 0x00, 0x28, 0x00, 0x00, 0x00, 
    0x07, 0x00, 0x00, 0x00, 0x46, 0xFD, 0xFF, 0xFF, 0x01, 0x00, 0x00, 0x00, 
    0x02, 0x00, 0x00, 0x00, 0x01, 0x00, 0x00, 0x00, 0x02, 0x00, 0x00, 0x00, 
    0x00, 0x00, 0x00, 0x01, 0x01, 0x00, 0x00, 0x00, 0x30, 0x00, 0x00, 0x00, 
    0x01, 0x00, 0x00, 0x00, 0x2F, 0x00, 0x00, 0x00, 0xC2, 0xFB, 0xFF, 0xFF, 
    0x14, 0x00, 0x00, 0x00, 0x00, 0x00, 0x00, 0x34, 0x10, 0x00, 0x00, 0x00, 
    0x14, 0x00, 0x00, 0x00, 0x04, 0x00, 0x00, 0x00, 0xCC, 0xE2, 0xFF, 0xFF, 
    0x01, 0x00, 0x00, 0x00, 0x2F, 0x00, 0x00, 0x00, 0x02, 0x00, 0x00, 0x00, 
    0x2E, 0x00, 0x00, 0x00, 0x02, 0x00, 0x00, 0x00, 0xF2, 0xFB, 0xFF, 0xFF, 
    0x14, 0x00, 0x00, 0x00, 0x00, 0x00, 0x00, 0x0B, 0x14, 0x00, 0x00, 0x00, 
    0x18, 0x00, 0x00, 0x00, 0x06, 0x00, 0x00, 0x00, 0x8A, 0xFB, 0xFF, 0xFF, 
    0x00, 0x00, 0x00, 0x01, 0x01, 0x00, 0x00, 0x00, 0x2E, 0x00, 0x00, 0x00, 
    0x02, 0x00, 0x00, 0x00, 0x2D, 0x00, 0x00, 0x00, 0x0A, 0x00, 0x00, 0x00, 
    0x96, 0xFC, 0xFF, 0xFF, 0x0C, 0x00, 0x00, 0x00, 0x10, 0x00, 0x00, 0x00, 
    0x03, 0x00, 0x00, 0x00, 0x01, 0x00, 0x00, 0x00, 0x2D, 0x00, 0x00, 0x00, 
    0x02, 0x00, 0x00, 0x00, 0x2C, 0x00, 0x00, 0x00, 0x12, 0x00, 0x00, 0x00, 
    0x4A, 0xFC, 0xFF, 0xFF, 0x14, 0x00, 0x00, 0x00, 0x00, 0x00, 0x00, 0x01, 
    0x1C, 0x00, 0x00, 0x00, 0x20, 0x00, 0x00, 0x00, 0x05, 0x00, 0x00, 0x00, 
    0x36, 0xFD, 0xFF, 0xFF, 0x01, 0x00, 0x00, 0x00, 0x01, 0x00, 0x00, 0x00, 
    0x00, 0x00, 0x00, 0x01, 0x01, 0x00, 0x00, 0x00, 0x2C, 0x00, 0x00, 0x00, 
    0x03, 0x00, 0x00, 0x00, 0x2B, 0x00, 0x00, 0x00, 0x17, 0x00, 0x00, 0x00, 
    0x10, 0x00, 0x00, 0x00, 0x8A, 0xFC, 0xFF, 0xFF, 0x14, 0x00, 0x00, 0x00, 
    0x00, 0x00, 0x00, 0x34, 0x10, 0x00, 0x00, 0x00, 0x14, 0x00, 0x00, 0x00, 
    0x04, 0x00, 0x00, 0x00, 0x94, 0xE3, 0xFF, 0xFF, 0x01, 0x00, 0x00, 0x00, 
    0x2B, 0x00, 0x00, 0x00, 0x02, 0x00, 0x00, 0x00, 0x2A, 0x00, 0x00, 0x00, 
    0x01, 0x00, 0x00, 0x00, 0x2A, 0xFD, 0xFF, 0xFF, 0x0C, 0x00, 0x00, 0x00, 
    0x10, 0x00, 0x00, 0x00, 0x03, 0x00, 0x00, 0x00, 0x01, 0x00, 0x00, 0x00, 
    0x2A, 0x00, 0x00, 0x00, 0x02, 0x00, 0x00, 0x00, 0x29, 0x00, 0x00, 0x00, 
    0x13, 0x00, 0x00, 0x00, 0xDE, 0xFC, 0xFF, 0xFF, 0x14, 0x00, 0x00, 0x00, 
    0x00, 0x00, 0x00, 0x05, 0x24, 0x00, 0x00, 0x00, 0x28, 0x00, 0x00, 0x00, 
    0x07, 0x00, 0x00, 0x00, 0xA2, 0xFE, 0xFF, 0xFF, 0x01, 0x00, 0x00, 0x00, 
    0x02, 0x00, 0x00, 0x00, 0x01, 0x00, 0x00, 0x00, 0x02, 0x00, 0x00, 0x00, 
    0x00, 0x00, 0x00, 0x01, 0x01, 0x00, 0x00, 0x00, 0x29, 0x00, 0x00, 0x00, 
    0x01, 0x00, 0x00, 0x00, 0x28, 0x00, 0x00, 0x00, 0x1E, 0xFD, 0xFF, 0xFF, 
    0x14, 0x00, 0x00, 0x00, 0x00, 0x00, 0x00, 0x34, 0x10, 0x00, 0x00, 0x00, 
    0x14, 0x00, 0x00, 0x00, 0x04, 0x00, 0x00, 0x00, 0x28, 0xE4, 0xFF, 0xFF, 
    0x01, 0x00, 0x00, 0x00, 0x28, 0x00, 0x00, 0x00, 0x02, 0x00, 0x00, 0x00, 
    0x27, 0x00, 0x00, 0x00, 0x02, 0x00, 0x00, 0x00, 0x4E, 0xFD, 0xFF, 0xFF, 
    0x14, 0x00, 0x00, 0x00, 0x00, 0x00, 0x00, 0x0B, 0x14, 0x00, 0x00, 0x00, 
    0x18, 0x00, 0x00, 0x00, 0x06, 0x00, 0x00, 0x00, 0xE6, 0xFC, 0xFF, 0xFF, 
    0x00, 0x00, 0x00, 0x01, 0x01, 0x00, 0x00, 0x00, 0x27, 0x00, 0x00, 0x00, 
    0x02, 0x00, 0x00, 0x00, 0x26, 0x00, 0x00, 0x00, 0x09, 0x00, 0x00, 0x00, 
    0xF2, 0xFD, 0xFF, 0xFF, 0x0C, 0x00, 0x00, 0x00, 0x10, 0x00, 0x00, 0x00, 
    0x03, 0x00, 0x00, 0x00, 0x01, 0x00, 0x00, 0x00, 0x26, 0x00, 0x00, 0x00, 
    0x02, 0x00, 0x00, 0x00, 0x25, 0x00, 0x00, 0x00, 0x14, 0x00, 0x00, 0x00, 
    0xA6, 0xFD, 0xFF, 0xFF, 0x14, 0x00, 0x00, 0x00, 0x00, 0x00, 0x00, 0x01, 
    0x1C, 0x00, 0x00, 0x00, 0x20, 0x00, 0x00, 0x00, 0x05, 0x00, 0x00, 0x00, 
    0x92, 0xFE, 0xFF, 0xFF, 0x01, 0x00, 0x00, 0x00, 0x01, 0x00, 0x00, 0x00, 
    0x00, 0x00, 0x00, 0x01, 0x01, 0x00, 0x00, 0x00, 0x25, 0x00, 0x00, 0x00, 
    0x03, 0x00, 0x00, 0x00, 0x24, 0x00, 0x00, 0x00, 0x0F, 0x00, 0x00, 0x00, 
    0x0E, 0x00, 0x00, 0x00, 0xE6, 0xFD, 0xFF, 0xFF, 0x14, 0x00, 0x00, 0x00, 
    0x00, 0x00, 0x00, 0x34, 0x10, 0x00, 0x00, 0x00, 0x14, 0x00, 0x00, 0x00, 
    0x04, 0x00, 0x00, 0x00, 0xF0, 0xE4, 0xFF, 0xFF, 0x01, 0x00, 0x00, 0x00, 
    0x24, 0x00, 0x00, 0x00, 0x02, 0x00, 0x00, 0x00, 0x23, 0x00, 0x00, 0x00, 
    0x01, 0x00, 0x00, 0x00, 0x86, 0xFE, 0xFF, 0xFF, 0x0C, 0x00, 0x00, 0x00, 
    0x10, 0x00, 0x00, 0x00, 0x03, 0x00, 0x00, 0x00, 0x01, 0x00, 0x00, 0x00, 
    0x23, 0x00, 0x00, 0x00, 0x02, 0x00, 0x00, 0x00, 0x22, 0x00, 0x00, 0x00, 
    0x15, 0x00, 0x00, 0x00, 0x3A, 0xFE, 0xFF, 0xFF, 0x24, 0x00, 0x00, 0x00, 
    0x00, 0x00, 0x00, 0x05, 0x34, 0x00, 0x00, 0x00, 0x38, 0x00, 0x00, 0x00, 
    0x07, 0x00, 0x00, 0x00, 0x00, 0x00, 0x0E, 0x00, 0x18, 0x00, 0x17, 0x00, 
    0x10, 0x00, 0x0C, 0x00, 0x08, 0x00, 0x04, 0x00, 0x0E, 0x00, 0x00, 0x00, 
    0x01, 0x00, 0x00, 0x00, 0x02, 0x00, 0x00, 0x00, 0x01, 0x00, 0x00, 0x00, 
    0x02, 0x00, 0x00, 0x00, 0x00, 0x00, 0x00, 0x01, 0x01, 0x00, 0x00, 0x00, 
    0x22, 0x00, 0x00, 0x00, 0x01, 0x00, 0x00, 0x00, 0x21, 0x00, 0x00, 0x00, 
    0x8A, 0xFE, 0xFF, 0xFF, 0x14, 0x00, 0x00, 0x00, 0x00, 0x00, 0x00, 0x34, 
    0x10, 0x00, 0x00, 0x00, 0x14, 0x00, 0x00, 0x00, 0x04, 0x00, 0x00, 0x00, 
    0x94, 0xE5, 0xFF, 0xFF, 0x01, 0x00, 0x00, 0x00, 0x21, 0x00, 0x00, 0x00, 
    0x02, 0x00, 0x00, 0x00, 0x20, 0x00, 0x00, 0x00, 0x02, 0x00, 0x00, 0x00, 
    0xBA, 0xFE, 0xFF, 0xFF, 0x14, 0x00, 0x00, 0x00, 0x00, 0x00, 0x00, 0x0B, 
    0x14, 0x00, 0x00, 0x00, 0x18, 0x00, 0x00, 0x00, 0x06, 0x00, 0x00, 0x00, 
    0x52, 0xFE, 0xFF, 0xFF, 0x00, 0x00, 0x00, 0x01, 0x01, 0x00, 0x00, 0x00, 
    0x20, 0x00, 0x00, 0x00, 0x02, 0x00, 0x00, 0x00, 0x1F, 0x00, 0x00, 0x00, 
    0x08, 0x00, 0x00, 0x00, 0x5E, 0xFF, 0xFF, 0xFF, 0x0C, 0x00, 0x00, 0x00, 
    0x10, 0x00, 0x00, 0x00, 0x03, 0x00, 0x00, 0x00, 0x01, 0x00, 0x00, 0x00, 
    0x1F, 0x00, 0x00, 0x00, 0x02, 0x00, 0x00, 0x00, 0x1E, 0x00, 0x00, 0x00, 
    0x16, 0x00, 0x00, 0x00, 0x12, 0xFF, 0xFF, 0xFF, 0x20, 0x00, 0x00, 0x00, 
    0x00, 0x00, 0x00, 0x01, 0x28, 0x00, 0x00, 0x00, 0x2C, 0x00, 0x00, 0x00, 
    0x05, 0x00, 0x00, 0x00, 0x00, 0x00, 0x0A, 0x00, 0x10, 0x00, 0x0F, 0x00, 
    0x08, 0x00, 0x04, 0x00, 0x0A, 0x00, 0x00, 0x00, 0x01, 0x00, 0x00, 0x00, 
    0x01, 0x00, 0x00, 0x00, 0x00, 0x00, 0x00, 0x01, 0x01, 0x00, 0x00, 0x00, 
    0x1E, 0x00, 0x00, 0x00, 0x03, 0x00, 0x00, 0x00, 0x1D, 0x00, 0x00, 0x00, 
    0x0D, 0x00, 0x00, 0x00, 0x0C, 0x00, 0x00, 0x00, 0x5E, 0xFF, 0xFF, 0xFF, 
    0x14, 0x00, 0x00, 0x00, 0x00, 0x00, 0x00, 0x34, 0x10, 0x00, 0x00, 0x00, 
    0x14, 0x00, 0x00, 0x00, 0x04, 0x00, 0x00, 0x00, 0x68, 0xE6, 0xFF, 0xFF, 
    0x01, 0x00, 0x00, 0x00, 0x1D, 0x00, 0x00, 0x00, 0x02, 0x00, 0x00, 0x00, 
    0x1C, 0x00, 0x00, 0x00, 0x01, 0x00, 0x00, 0x00, 0x00, 0x00, 0x0A, 0x00, 
    0x10, 0x00, 0x0C, 0x00, 0x08, 0x00, 0x04, 0x00, 0x0A, 0x00, 0x00, 0x00, 
    0x0C, 0x00, 0x00, 0x00, 0x10, 0x00, 0x00, 0x00, 0x03, 0x00, 0x00, 0x00, 
    0x01, 0x00, 0x00, 0x00, 0x1C, 0x00, 0x00, 0x00, 0x02, 0x00, 0x00, 0x00, 
    0x00, 0x00, 0x00, 0x00, 0x1B, 0x00, 0x00, 0x00, 0xBE, 0xFF, 0xFF, 0xFF, 
    0x1C, 0x00, 0x00, 0x00, 0x00, 0x00, 0x00, 0x3B, 0x1C, 0x00, 0x00, 0x00, 
    0x20, 0x00, 0x00, 0x00, 0x02, 0x00, 0x00, 0x00, 0x00, 0x00, 0x06, 0x00, 
    0x08, 0x00, 0x04, 0x00, 0x06, 0x00, 0x00, 0x00, 0x03, 0x00, 0x00, 0x00, 
    0x01, 0x00, 0x00, 0x00, 0x1B, 0x00, 0x00, 0x00, 0x03, 0x00, 0x00, 0x00, 
    0x1A, 0x00, 0x00, 0x00, 0x03, 0x00, 0x00, 0x00, 0x02, 0x00, 0x00, 0x00, 
    0x00, 0x00, 0x0E, 0x00, 0x1A, 0x00, 0x14, 0x00, 0x10, 0x00, 0x0C, 0x00, 
    0x0B, 0x00, 0x04, 0x00, 0x0E, 0x00, 0x00, 0x00, 0x24, 0x00, 0x00, 0x00, 
    0x00, 0x00, 0x00, 0x20, 0x24, 0x00, 0x00, 0x00, 0x28, 0x00, 0x00, 0x00, 
    0x01, 0x00, 0x00, 0x00, 0x00, 0x00, 0x0E, 0x00, 0x08, 0x00, 0x00, 0x00, 
    0x00, 0x00, 0x00, 0x00, 0x00, 0x00, 0x04, 0x00, 0x0E, 0x00, 0x00, 0x00, 
    0x01, 0x00, 0x00, 0x00, 0x01, 0x00, 0x00, 0x00, 0x1A, 0x00, 0x00, 0x00, 
    0x04, 0x00, 0x00, 0x00, 0x19, 0x00, 0x00, 0x00, 0x04, 0x00, 0x00, 0x00, 
    0x05, 0x00, 0x00, 0x00, 0x05, 0x00, 0x00, 0x00, 0x00, 0x00, 0x0E, 0x00, 
    0x16, 0x00, 0x00, 0x00, 0x10, 0x00, 0x0C, 0x00, 0x0B, 0x00, 0x04, 0x00, 
    0x0E, 0x00, 0x00, 0x00, 0x18, 0x00, 0x00, 0x00, 0x00, 0x00, 0x00, 0x37, 
    0x18, 0x00, 0x00, 0x00, 0x1C, 0x00, 0x00, 0x00, 0x00, 0x00, 0x06, 0x00, 
    0x08, 0x00, 0x07, 0x00, 0x06, 0x00, 0x00, 0x00, 0x00, 0x00, 0x00, 0x02, 
    0x01, 0x00, 0x00, 0x00, 0x19, 0x00, 0x00, 0x00, 0x01, 0x00, 0x00, 0x00, 
    0x00, 0x00, 0x00, 0x00, 0x01, 0x00, 0x00, 0x00, 0x35, 0x00, 0x00, 0x00, 
    0x01, 0x00, 0x00, 0x00, 0x00, 0x00, 0x00, 0x00, 0x36, 0x00, 0x00, 0x00, 
    0x98, 0x17, 0x00, 0x00, 0x44, 0x17, 0x00, 0x00, 0xF0, 0x16, 0x00, 0x00, 
    0xB4, 0x16, 0x00, 0x00, 0x74, 0x16, 0x00, 0x00, 0x34, 0x16, 0x00, 0x00, 
    0xF8, 0x15, 0x00, 0x00, 0xA4, 0x15, 0x00, 0x00, 0x60, 0x15, 0x00, 0x00, 
    0x1C, 0x15, 0x00, 0x00, 0xD8, 0x14, 0x00, 0x00, 0x94, 0x14, 0x00, 0x00, 
    0x54, 0x14, 0x00, 0x00, 0x08, 0x14, 0x00, 0x00, 0xC8, 0x13, 0x00, 0x00, 
    0x7C, 0x13, 0x00, 0x00, 0x3C, 0x13, 0x00, 0x00, 0xF8, 0x12, 0x00, 0x00, 
    0xB4, 0x12, 0x00, 0x00, 0x70, 0x12, 0x00, 0x00, 0x2C, 0x12, 0x00, 0x00, 
    0xE8, 0x11, 0x00, 0x00, 0xA4, 0x11, 0x00, 0x00, 0xB4, 0x0F, 0x00, 0x00, 
    0xDC, 0x0D, 0x00, 0x00, 0x88, 0x0D, 0x00, 0x00, 0x30, 0x0D, 0x00, 0x00, 
    0xD4, 0x0C, 0x00, 0x00, 0x68, 0x0C, 0x00, 0x00, 0xE4, 0x0B, 0x00, 0x00, 
    0x6C, 0x0B, 0x00, 0x00, 0xF4, 0x0A, 0x00, 0x00, 0x6C, 0x0A, 0x00, 0x00, 
    0xE4, 0x09, 0x00, 0x00, 0x68, 0x09, 0x00, 0x00, 0xEC, 0x08, 0x00, 0x00, 
    0x68, 0x08, 0x00, 0x00, 0xF0, 0x07, 0x00, 0x00, 0x78, 0x07, 0x00, 0x00, 
    0xF0, 0x06, 0x00, 0x00, 0x68, 0x06, 0x00, 0x00, 0xEC, 0x05, 0x00, 0x00, 
    0x70, 0x05, 0x00, 0x00, 0xEC, 0x04, 0x00, 0x00, 0x74, 0x04, 0x00, 0x00, 
    0xFC, 0x03, 0x00, 0x00, 0x74, 0x03, 0x00, 0x00, 0xEC, 0x02, 0x00, 0x00, 
    0x70, 0x02, 0x00, 0x00, 0xF4, 0x01, 0x00, 0x00, 0x80, 0x01, 0x00, 0x00, 
    0xE0, 0x00, 0x00, 0x00, 0x60, 0x00, 0x00, 0x00, 0x04, 0x00, 0x00, 0x00, 
    0x56, 0xE9, 0xFF, 0xFF, 0x00, 0x00, 0x00, 0x01, 0x14, 0x00, 0x00, 0x00, 
    0x1C, 0x00, 0x00, 0x00, 0x1C, 0x00, 0x00, 0x00, 0x36, 0x00, 0x00, 0x00, 
    0x34, 0x00, 0x00, 0x00, 0x02, 0x00, 0x00, 0x00, 0xFF, 0xFF, 0xFF, 0xFF, 
    0x02, 0x00, 0x00, 0x00, 0xA4, 0xE8, 0xFF, 0xFF, 0x1B, 0x00, 0x00, 0x00, 
    0x53, 0x74, 0x61, 0x74, 0x65, 0x66, 0x75, 0x6C, 0x50, 0x61, 0x72, 0x74, 
    0x69, 0x74, 0x69, 0x6F, 0x6E, 0x65, 0x64, 0x43, 0x61, 0x6C, 0x6C, 0x5F, 
    0x31, 0x3A, 0x30, 0x00, 0x02, 0x00, 0x00, 0x00, 0x01, 0x00, 0x00, 0x00, 
    0x02, 0x00, 0x00, 0x00, 0xAE, 0xE9, 0xFF, 0xFF, 0x00, 0x00, 0x00, 0x01, 
    0x14, 0x00, 0x00, 0x00, 0x1C, 0x00, 0x00, 0x00, 0x1C, 0x00, 0x00, 0x00, 
    0x35, 0x00, 0x00, 0x00, 0x58, 0x00, 0x00, 0x00, 0x02, 0x00, 0x00, 0x00, 
    0xFF, 0xFF, 0xFF, 0xFF, 0x02, 0x00, 0x00, 0x00, 0xFC, 0xE8, 0xFF, 0xFF, 
    0x3E, 0x00, 0x00, 0x00, 0x73, 0x65, 0x71, 0x75, 0x65, 0x6E, 0x74, 0x69, 
    0x61, 0x6C, 0x5F, 0x35, 0x5F, 0x31, 0x2F, 0x64, 0x65, 0x6E, 0x73, 0x65, 
    0x5F, 0x31, 0x31, 0x5F, 0x31, 0x2F, 0x4D, 0x61, 0x74, 0x4D, 0x75, 0x6C, 
    0x3B, 0x73, 0x65, 0x71, 0x75, 0x65, 0x6E, 0x74, 0x69, 0x61, 0x6C, 0x5F, 
    0x35, 0x5F, 0x31, 0x2F, 0x64, 0x65, 0x6E, 0x73, 0x65, 0x5F, 0x31, 0x31, 
    0x5F, 0x31, 0x2F, 0x41, 0x64, 0x64, 0x00, 0x00, 0x02, 0x00, 0x00, 0x00, 
    0x01, 0x00, 0x00, 0x00, 0x02, 0x00, 0x00, 0x00, 0x2A, 0xEA, 0xFF, 0xFF, 
    0x00, 0x00, 0x00, 0x01, 0x14, 0x00, 0x00, 0x00, 0x1C, 0x00, 0x00, 0x00, 
    0x1C, 0x00, 0x00, 0x00, 0x34, 0x00, 0x00, 0x00, 0x78, 0x00, 0x00, 0x00, 
    0x02, 0x00, 0x00, 0x00, 0xFF, 0xFF, 0xFF, 0xFF, 0x20, 0x00, 0x00, 0x00, 
    0x78, 0xE9, 0xFF, 0xFF, 0x5D, 0x00, 0x00, 0x00, 0x73, 0x65, 0x71, 0x75, 
    0x65, 0x6E, 0x74, 0x69, 0x61, 0x6C, 0x5F, 0x35, 0x5F, 0x31, 0x2F, 0x64, 
    0x65, 0x6E, 0x73, 0x65, 0x5F, 0x31, 0x30, 0x5F, 0x31, 0x2F, 0x4D, 0x61, 
    0x74, 0x4D, 0x75, 0x6C, 0x3B, 0x73, 0x65, 0x71, 0x75, 0x65, 0x6E, 0x74, 
    0x69, 0x61, 0x6C, 0x5F, 0x35, 0x5F, 0x31, 0x2F, 0x64, 0x65, 0x6E, 0x73, 
    0x65, 0x5F, 0x31, 0x30, 0x5F, 0x31, 0x2F, 0x52, 0x65, 0x6C, 0x75, 0x3B, 
    0x73, 0x65, 0x71, 0x75, 0x65, 0x6E, 0x74, 0x69, 0x61, 0x6C, 0x5F, 0x35, 
    0x5F, 0x31, 0x2F, 0x64, 0x65, 0x6E, 0x73, 0x65, 0x5F, 0x31, 0x30, 0x5F, 
    0x31, 0x2F, 0x41, 0x64, 0x64, 0x00, 0x00, 0x00, 0x02, 0x00, 0x00, 0x00, 
    0x01, 0x00, 0x00, 0x00, 0x20, 0x00, 0x00, 0x00, 0xC6, 0xEA, 0xFF, 0xFF, 
    0x00, 0x00, 0x00, 0x01, 0x14, 0x00, 0x00, 0x00, 0x1C, 0x00, 0x00, 0x00, 
    0x1C, 0x00, 0x00, 0x00, 0x33, 0x00, 0x00, 0x00, 0x4C, 0x00, 0x00, 0x00, 
    0x02, 0x00, 0x00, 0x00, 0xFF, 0xFF, 0xFF, 0xFF, 0x20, 0x00, 0x00, 0x00, 
    0x14, 0xEA, 0xFF, 0xFF, 0x30, 0x00, 0x00, 0x00, 0x73, 0x65, 0x71, 0x75, 
    0x65, 0x6E, 0x74, 0x69, 0x61, 0x6C, 0x5F, 0x35, 0x5F, 0x31, 0x2F, 0x67, 
    0x6C, 0x6F, 0x62, 0x61, 0x6C, 0x5F, 0x61, 0x76, 0x65, 0x72, 0x61, 0x67, 
    0x65, 0x5F, 0x70, 0x6F, 0x6F, 0x6C, 0x69, 0x6E, 0x67, 0x31, 0x64, 0x5F, 
    0x32, 0x5F, 0x31, 0x2F, 0x4D, 0x65, 0x61, 0x6E, 0x00, 0x00, 0x00, 0x00, 
    0x02, 0x00, 0x00, 0x00, 0x01, 0x00, 0x00, 0x00, 0x20, 0x00, 0x00, 0x00, 
    0x36, 0xEB, 0xFF, 0xFF, 0x00, 0x00, 0x00, 0x01, 0x14, 0x00, 0x00, 0x00, 
    0x20, 0x00, 0x00, 0x00, 0x20, 0x00, 0x00, 0x00, 0x32, 0x00, 0x00, 0x00, 
    0x50, 0x00, 0x00, 0x00, 0x03, 0x00, 0x00, 0x00, 0xFF, 0xFF, 0xFF, 0xFF, 
    0xCE, 0x07, 0x00, 0x00, 0x20, 0x00, 0x00, 0x00, 0x88, 0xEA, 0xFF, 0xFF, 
    0x33, 0x00, 0x00, 0x00, 0x73, 0x65, 0x71, 0x75, 0x65, 0x6E, 0x74, 0x69, 
    0x61, 0x6C, 0x5F, 0x35, 0x5F, 0x31, 0x2F, 0x6D, 0x61, 0x78, 0x5F, 0x70, 
    0x6F, 0x6F, 0x6C, 0x69, 0x6E, 0x67, 0x31, 0x64, 0x5F, 0x31, 0x33, 0x5F, 
    0x31, 0x2F, 0x4D, 0x61, 0x78, 0x50, 0x6F, 0x6F, 0x6C, 0x31, 0x64, 0x2F, 
    0x53, 0x71, 0x75, 0x65, 0x65, 0x7A, 0x65, 0x00, 0x03, 0x00, 0x00, 0x00, 
    0x01, 0x00, 0x00, 0x00, 0xCE, 0x07, 0x00, 0x00, 0x20, 0x00, 0x00, 0x00, 
    0xAE, 0xEB, 0xFF, 0xFF, 0x00, 0x00, 0x00, 0x01, 0x14, 0x00, 0x00, 0x00, 
    0x24, 0x00, 0x00, 0x00, 0x24, 0x00, 0x00, 0x00, 0x31, 0x00, 0x00, 0x00, 
    0x4C, 0x00, 0x00, 0x00, 0x04, 0x00, 0x00, 0x00, 0xFF, 0xFF, 0xFF, 0xFF, 
    0x01, 0x00, 0x00, 0x00, 0xCE, 0x07, 0x00, 0x00, 0x20, 0x00, 0x00, 0x00, 
    0x04, 0xEB, 0xFF, 0xFF, 0x2B, 0x00, 0x00, 0x00, 0x73, 0x65, 0x71, 0x75, 
    0x65, 0x6E, 0x74, 0x69, 0x61, 0x6C, 0x5F, 0x35, 0x5F, 0x31, 0x2F, 0x6D, 
    0x61, 0x78, 0x5F, 0x70, 0x6F, 0x6F, 0x6C, 0x69, 0x6E, 0x67, 0x31, 0x64, 
    0x5F, 0x31, 0x33, 0x5F, 0x31, 0x2F, 0x4D, 0x61, 0x78, 0x50, 0x6F, 0x6F, 
    0x6C, 0x31, 0x64, 0x00, 0x04, 0x00, 0x00, 0x00, 0x01, 0x00, 0x00, 0x00, 
    0x01, 0x00, 0x00, 0x00, 0xCE, 0x07, 0x00, 0x00, 0x20, 0x00, 0x00, 0x00, 
    0x26, 0xEC, 0xFF, 0xFF, 0x00, 0x00, 0x00, 0x01, 0x14, 0x00, 0x00, 0x00, 
    0x24, 0x00, 0x00, 0x00, 0x24, 0x00, 0x00, 0x00, 0x30, 0x00, 0x00, 0x00, 
    0x58, 0x00, 0x00, 0x00, 0x04, 0x00, 0x00, 0x00, 0xFF, 0xFF, 0xFF, 0xFF, 
    0x01, 0x00, 0x00, 0x00, 0x9C, 0x0F, 0x00, 0x00, 0x20, 0x00, 0x00, 0x00, 
    0x7C, 0xEB, 0xFF, 0xFF, 0x36, 0x00, 0x00, 0x00, 0x73, 0x65, 0x71, 0x75, 
    0x65, 0x6E, 0x74, 0x69, 0x61, 0x6C, 0x5F, 0x35, 0x5F, 0x31, 0x2F, 0x6D, 
    0x61, 0x78, 0x5F, 0x70, 0x6F, 0x6F, 0x6C, 0x69, 0x6E, 0x67, 0x31, 0x64, 
    0x5F, 0x31, 0x33, 0x5F, 0x31, 0x2F, 0x4D, 0x61, 0x78, 0x50, 0x6F, 0x6F, 
    0x6C, 0x31, 0x64, 0x2F, 0x45, 0x78, 0x70, 0x61, 0x6E, 0x64, 0x44, 0x69, 
    0x6D, 0x73, 0x00, 0x00, 0x04, 0x00, 0x00, 0x00, 0x01, 0x00, 0x00, 0x00, 
    0x01, 0x00, 0x00, 0x00, 0x9C, 0x0F, 0x00, 0x00, 0x20, 0x00, 0x00, 0x00, 
    0xAA, 0xEC, 0xFF, 0xFF, 0x00, 0x00, 0x00, 0x01, 0x14, 0x00, 0x00, 0x00, 
    0x20, 0x00, 0x00, 0x00, 0x20, 0x00, 0x00, 0x00, 0x2F, 0x00, 0x00, 0x00, 
    0x5C, 0x00, 0x00, 0x00, 0x03, 0x00, 0x00, 0x00, 0xFF, 0xFF, 0xFF, 0xFF, 
    0x9C, 0x0F, 0x00, 0x00, 0x20, 0x00, 0x00, 0x00, 0xFC, 0xEB, 0xFF, 0xFF, 
    0x3E, 0x00, 0x00, 0x00, 0x73, 0x65, 0x71, 0x75, 0x65, 0x6E, 0x74, 0x69, 
    0x61, 0x6C, 0x5F, 0x35, 0x5F, 0x31, 0x2F, 0x63, 0x6F, 0x6E, 0x76, 0x31, 
    0x64, 0x5F, 0x31, 0x33, 0x5F, 0x31, 0x2F, 0x52, 0x65, 0x6C, 0x75, 0x3B, 
    0x73, 0x65, 0x71, 0x75, 0x65, 0x6E, 0x74, 0x69, 0x61, 0x6C, 0x5F, 0x35, 
    0x5F, 0x31, 0x2F, 0x63, 0x6F, 0x6E, 0x76, 0x31, 0x64, 0x5F, 0x31, 0x33, 
    0x5F, 0x31, 0x2F, 0x61, 0x64, 0x64, 0x00, 0x00, 0x03, 0x00, 0x00, 0x00, 
    0x01, 0x00, 0x00, 0x00, 0x9C, 0x0F, 0x00, 0x00, 0x20, 0x00, 0x00, 0x00, 
    0x2E, 0xED, 0xFF, 0xFF, 0x00, 0x00, 0x00, 0x01, 0x14, 0x00, 0x00, 0x00, 
    0x20, 0x00, 0x00, 0x00, 0x20, 0x00, 0x00, 0x00, 0x2E, 0x00, 0x00, 0x00, 
    0x4C, 0x00, 0x00, 0x00, 0x03, 0x00, 0x00, 0x00, 0xFF, 0xFF, 0xFF, 0xFF, 
    0x9C, 0x0F, 0x00, 0x00, 0x20, 0x00, 0x00, 0x00, 0x80, 0xEC, 0xFF, 0xFF, 
    0x2E, 0x00, 0x00, 0x00, 0x73, 0x65, 0x71, 0x75, 0x65, 0x6E, 0x74, 0x69, 
    0x61, 0x6C, 0x5F, 0x35, 0x5F, 0x31, 0x2F, 0x63, 0x6F, 0x6E, 0x76, 0x31, 
    0x64, 0x5F, 0x31, 0x33, 0x5F, 0x31, 0x2F, 0x63, 0x6F, 0x6E, 0x76, 0x6F, 
    0x6C, 0x75, 0x74, 0x69, 0x6F, 0x6E, 0x2F, 0x53, 0x71, 0x75, 0x65, 0x65, 
    0x7A, 0x65, 0x00, 0x00, 0x03, 0x00, 0x00, 0x00, 0x01, 0x00, 0x00, 0x00, 
    0x9C, 0x0F, 0x00, 0x00, 0x20, 0x00, 0x00, 0x00, 0xA2, 0xED, 0xFF, 0xFF, 
    0x00, 0x00, 0x00, 0x01, 0x14, 0x00, 0x00, 0x00, 0x24, 0x00, 0x00, 0x00, 
    0x24, 0x00, 0x00, 0x00, 0x2D, 0x00, 0x00, 0x00, 0x48, 0x00, 0x00, 0x00, 
    0x04, 0x00, 0x00, 0x00, 0xFF, 0xFF, 0xFF, 0xFF, 0x01, 0x00, 0x00, 0x00, 
    0x9C, 0x0F, 0x00, 0x00, 0x20, 0x00, 0x00, 0x00, 0xF8, 0xEC, 0xFF, 0xFF, 
    0x26, 0x00, 0x00, 0x00, 0x73, 0x65, 0x71, 0x75, 0x65, 0x6E, 0x74, 0x69, 
    0x61, 0x6C, 0x5F, 0x35, 0x5F, 0x31, 0x2F, 0x63, 0x6F, 0x6E, 0x76, 0x31, 
    0x64, 0x5F, 0x31, 0x33, 0x5F, 0x31, 0x2F, 0x63, 0x6F, 0x6E, 0x76, 0x6F, 
    0x6C, 0x75, 0x74, 0x69, 0x6F, 0x6E, 0x00, 0x00, 0x04, 0x00, 0x00, 0x00, 
    0x01, 0x00, 0x00, 0x00, 0x01, 0x00, 0x00, 0x00, 0x9C, 0x0F, 0x00, 0x00, 
    0x20, 0x00, 0x00, 0x00, 0x16, 0xEE, 0xFF, 0xFF, 0x00, 0x00, 0x00, 0x01, 
    0x14, 0x00, 0x00, 0x00, 0x24, 0x00, 0x00, 0x00, 0x24, 0x00, 0x00, 0x00, 
    0x2C, 0x00, 0x00, 0x00, 0x54, 0x00, 0x00, 0x00, 0x04, 0x00, 0x00, 0x00, 
    0xFF, 0xFF, 0xFF, 0xFF, 0x01, 0x00, 0x00, 0x00, 0x9E, 0x0F, 0x00, 0x00, 
    0x10, 0x00, 0x00, 0x00, 0x6C, 0xED, 0xFF, 0xFF, 0x31, 0x00, 0x00, 0x00, 
    0x73, 0x65, 0x71, 0x75, 0x65, 0x6E, 0x74, 0x69, 0x61, 0x6C, 0x5F, 0x35, 
    0x5F, 0x31, 0x2F, 0x63, 0x6F, 0x6E, 0x76, 0x31, 0x64, 0x5F, 0x31, 0x33, 
    0x5F, 0x31, 0x2F, 0x63, 0x6F, 0x6E, 0x76, 0x6F, 0x6C, 0x75, 0x74, 0x69, 
    0x6F, 0x6E, 0x2F, 0x45, 0x78, 0x70, 0x61, 0x6E, 0x64, 0x44, 0x69, 0x6D, 
    0x73, 0x00, 0x00, 0x00, 0x04, 0x00, 0x00, 0x00, 0x01, 0x00, 0x00, 0x00, 
    0x01, 0x00, 0x00, 0x00, 0x9E, 0x0F, 0x00, 0x00, 0x10, 0x00, 0x00, 0x00, 
    0x96, 0xEE, 0xFF, 0xFF, 0x00, 0x00, 0x00, 0x01, 0x14, 0x00, 0x00, 0x00, 
    0x20, 0x00, 0x00, 0x00, 0x20, 0x00, 0x00, 0x00, 0x2B, 0x00, 0x00, 0x00, 
    0x50, 0x00, 0x00, 0x00, 0x03, 0x00, 0x00, 0x00, 0xFF, 0xFF, 0xFF, 0xFF, 
    0x9E, 0x0F, 0x00, 0x00, 0x10, 0x00, 0x00, 0x00, 0xE8, 0xED, 0xFF, 0xFF, 
    0x33, 0x00, 0x00, 0x00, 0x73, 0x65, 0x71, 0x75, 0x65, 0x6E, 0x74, 0x69, 
    0x61, 0x6C, 0x5F, 0x35, 0x5F, 0x31, 0x2F, 0x6D, 0x61, 0x78, 0x5F, 0x70, 
    0x6F, 0x6F, 0x6C, 0x69, 0x6E, 0x67, 0x31, 0x64, 0x5F, 0x31, 0x32, 0x5F, 
    0x31, 0x2F, 0x4D, 0x61, 0x78, 0x50, 0x6F, 0x6F, 0x6C, 0x31, 0x64, 0x2F, 
    0x53, 0x71, 0x75, 0x65, 0x65, 0x7A, 0x65, 0x00, 0x03, 0x00, 0x00, 0x00, 
    0x01, 0x00, 0x00, 0x00, 0x9E, 0x0F, 0x00, 0x00, 0x10, 0x00, 0x00, 0x00, 
    0x0E, 0xEF, 0xFF, 0xFF, 0x00, 0x00, 0x00, 0x01, 0x14, 0x00, 0x00, 0x00, 
    0x24, 0x00, 0x00, 0x00, 0x24, 0x00, 0x00, 0x00, 0x2A, 0x00, 0x00, 0x00, 
    0x4C, 0x00, 0x00, 0x00, 0x04, 0x00, 0x00, 0x00, 0xFF, 0xFF, 0xFF, 0xFF, 
    0x01, 0x00, 0x00, 0x00, 0x9E, 0x0F, 0x00, 0x00, 0x10, 0x00, 0x00, 0x00, 
    0x64, 0xEE, 0xFF, 0xFF, 0x2B, 0x00, 0x00, 0x00, 0x73, 0x65, 0x71, 0x75, 
    0x65, 0x6E, 0x74, 0x69, 0x61, 0x6C, 0x5F, 0x35, 0x5F, 0x31, 0x2F, 0x6D, 
    0x61, 0x78, 0x5F, 0x70, 0x6F, 0x6F, 0x6C, 0x69, 0x6E, 0x67, 0x31, 0x64, 
    0x5F, 0x31, 0x32, 0x5F, 0x31, 0x2F, 0x4D, 0x61, 0x78, 0x50, 0x6F, 0x6F, 
    0x6C, 0x31, 0x64, 0x00, 0x04, 0x00, 0x00, 0x00, 0x01, 0x00, 0x00, 0x00, 
    0x01, 0x00, 0x00, 0x00, 0x9E, 0x0F, 0x00, 0x00, 0x10, 0x00, 0x00, 0x00, 
    0x86, 0xEF, 0xFF, 0xFF, 0x00, 0x00, 0x00, 0x01, 0x14, 0x00, 0x00, 0x00, 
    0x24, 0x00, 0x00, 0x00, 0x24, 0x00, 0x00, 0x00, 0x29, 0x00, 0x00, 0x00, 
    0x58, 0x00, 0x00, 0x00, 0x04, 0x00, 0x00, 0x00, 0xFF, 0xFF, 0xFF, 0xFF, 
    0x01, 0x00, 0x00, 0x00, 0x3D, 0x1F, 0x00, 0x00, 0x10, 0x00, 0x00, 0x00, 
    0xDC, 0xEE, 0xFF, 0xFF, 0x36, 0x00, 0x00, 0x00, 0x73, 0x65, 0x71, 0x75, 
    0x65, 0x6E, 0x74, 0x69, 0x61, 0x6C, 0x5F, 0x35, 0x5F, 0x31, 0x2F, 0x6D, 
    0x61, 0x78, 0x5F, 0x70, 0x6F, 0x6F, 0x6C, 0x69, 0x6E, 0x67, 0x31, 0x64, 
    0x5F, 0x31, 0x32, 0x5F, 0x31, 0x2F, 0x4D, 0x61, 0x78, 0x50, 0x6F, 0x6F, 
    0x6C, 0x31, 0x64, 0x2F, 0x45, 0x78, 0x70, 0x61, 0x6E, 0x64, 0x44, 0x69, 
    0x6D, 0x73, 0x00, 0x00, 0x04, 0x00, 0x00, 0x00, 0x01, 0x00, 0x00, 0x00, 
    0x01, 0x00, 0x00, 0x00, 0x3D, 0x1F, 0x00, 0x00, 0x10, 0x00, 0x00, 0x00, 
    0x0A, 0xF0, 0xFF, 0xFF, 0x00, 0x00, 0x00, 0x01, 0x14, 0x00, 0x00, 0x00, 
    0x20, 0x00, 0x00, 0x00, 0x20, 0x00, 0x00, 0x00, 0x28, 0x00, 0x00, 0x00, 
    0x5C, 0x00, 0x00, 0x00, 0x03, 0x00, 0x00, 0x00, 0xFF, 0xFF, 0xFF, 0xFF, 
    0x3D, 0x1F, 0x00, 0x00, 0x10, 0x00, 0x00, 0x00, 0x5C, 0xEF, 0xFF, 0xFF, 
    0x3E, 0x00, 0x00, 0x00, 0x73, 0x65, 0x71, 0x75, 0x65, 0x6E, 0x74, 0x69, 
    0x61, 0x6C, 0x5F, 0x35, 0x5F, 0x31, 0x2F, 0x63, 0x6F, 0x6E, 0x76, 0x31, 
    0x64, 0x5F, 0x31, 0x32, 0x5F, 0x31, 0x2F, 0x52, 0x65, 0x6C, 0x75, 0x3B, 
    0x73, 0x65, 0x71, 0x75, 0x65, 0x6E, 0x74, 0x69, 0x61, 0x6C, 0x5F, 0x35, 
    0x5F, 0x31, 0x2F, 0x63, 0x6F, 0x6E, 0x76, 0x31, 0x64, 0x5F, 0x31, 0x32, 
    0x5F, 0x31, 0x2F, 0x61, 0x64, 0x64, 0x00, 0x00, 0x03, 0x00, 0x00, 0x00, 
    0x01, 0x00, 0x00, 0x00, 0x3D, 0x1F, 0x00, 0x00, 0x10, 0x00, 0x00, 0x00, 
    0x8E, 0xF0, 0xFF, 0xFF, 0x00, 0x00, 0x00, 0x01, 0x14, 0x00, 0x00, 0x00, 
    0x20, 0x00, 0x00, 0x00, 0x20, 0x00, 0x00, 0x00, 0x27, 0x00, 0x00, 0x00, 
    0x4C, 0x00, 0x00, 0x00, 0x03, 0x00, 0x00, 0x00, 0xFF, 0xFF, 0xFF, 0xFF, 
    0x3D, 0x1F, 0x00, 0x00, 0x10, 0x00, 0x00, 0x00, 0xE0, 0xEF, 0xFF, 0xFF, 
    0x2E, 0x00, 0x00, 0x00, 0x73, 0x65, 0x71, 0x75, 0x65, 0x6E, 0x74, 0x69, 
    0x61, 0x6C, 0x5F, 0x35, 0x5F, 0x31, 0x2F, 0x63, 0x6F, 0x6E, 0x76, 0x31, 
    0x64, 0x5F, 0x31, 0x32, 0x5F, 0x31, 0x2F, 0x63, 0x6F, 0x6E, 0x76, 0x6F, 
    0x6C, 0x75, 0x74, 0x69, 0x6F, 0x6E, 0x2F, 0x53, 0x71, 0x75, 0x65, 0x65, 
    0x7A, 0x65, 0x00, 0x00, 0x03, 0x00, 0x00, 0x00, 0x01, 0x00, 0x00, 0x00, 
    0x3D, 0x1F, 0x00, 0x00, 0x10, 0x00, 0x00, 0x00, 0x02, 0xF1, 0xFF, 0xFF, 
    0x00, 0x00, 0x00, 0x01, 0x14, 0x00, 0x00, 0x00, 0x24, 0x00, 0x00, 0x00, 
    0x24, 0x00, 0x00, 0x00, 0x26, 0x00, 0x00, 0x00, 0x48, 0x00, 0x00, 0x00, 
    0x04, 0x00, 0x00, 0x00, 0xFF, 0xFF, 0xFF, 0xFF, 0x01, 0x00, 0x00, 0x00, 
    0x3D, 0x1F, 0x00, 0x00, 0x10, 0x00, 0x00, 0x00, 0x58, 0xF0, 0xFF, 0xFF, 
    0x26, 0x00, 0x00, 0x00, 0x73, 0x65, 0x71, 0x75, 0x65, 0x6E, 0x74, 0x69, 
    0x61, 0x6C, 0x5F, 0x35, 0x5F, 0x31, 0x2F, 0x63, 0x6F, 0x6E, 0x76, 0x31, 
    0x64, 0x5F, 0x31, 0x32, 0x5F, 0x31, 0x2F, 0x63, 0x6F, 0x6E, 0x76, 0x6F, 
    0x6C, 0x75, 0x74, 0x69, 0x6F, 0x6E, 0x00, 0x00, 0x04, 0x00, 0x00, 0x00, 
    0x01, 0x00, 0x00, 0x00, 0x01, 0x00, 0x00, 0x00, 0x3D, 0x1F, 0x00, 0x00, 
    0x10, 0x00, 0x00, 0x00, 0x76, 0xF1, 0xFF, 0xFF, 0x00, 0x00, 0x00, 0x01, 
    0x14, 0x00, 0x00, 0x00, 0x24, 0x00, 0x00, 0x00, 0x24, 0x00, 0x00, 0x00, 
    0x25, 0x00, 0x00, 0x00, 0x54, 0x00, 0x00, 0x00, 0x04, 0x00, 0x00, 0x00, 
    0xFF, 0xFF, 0xFF, 0xFF, 0x01, 0x00, 0x00, 0x00, 0x3F, 0x1F, 0x00, 0x00, 
    0x08, 0x00, 0x00, 0x00, 0xCC, 0xF0, 0xFF, 0xFF, 0x31, 0x00, 0x00, 0x00, 
    0x73, 0x65, 0x71, 0x75, 0x65, 0x6E, 0x74, 0x69, 0x61, 0x6C, 0x5F, 0x35, 
    0x5F, 0x31, 0x2F, 0x63, 0x6F, 0x6E, 0x76, 0x31, 0x64, 0x5F, 0x31, 0x32, 
    0x5F, 0x31, 0x2F, 0x63, 0x6F, 0x6E, 0x76, 0x6F, 0x6C, 0x75, 0x74, 0x69, 
    0x6F, 0x6E, 0x2F, 0x45, 0x78, 0x70, 0x61, 0x6E, 0x64, 0x44, 0x69, 0x6D, 
    0x73, 0x00, 0x00, 0x00, 0x04, 0x00, 0x00, 0x00, 0x01, 0x00, 0x00, 0x00, 
    0x01, 0x00, 0x00, 0x00, 0x3F, 0x1F, 0x00, 0x00, 0x08, 0x00, 0x00, 0x00, 
    0xF6, 0xF1, 0xFF, 0xFF, 0x00, 0x00, 0x00, 0x01, 0x14, 0x00, 0x00, 0x00, 
    0x20, 0x00, 0x00, 0x00, 0x20, 0x00, 0x00, 0x00, 0x24, 0x00, 0x00, 0x00, 
    0x50, 0x00, 0x00, 0x00, 0x03, 0x00, 0x00, 0x00, 0xFF, 0xFF, 0xFF, 0xFF, 
    0x3F, 0x1F, 0x00, 0x00, 0x08, 0x00, 0x00, 0x00, 0x48, 0xF1, 0xFF, 0xFF, 
    0x33, 0x00, 0x00, 0x00, 0x73, 0x65, 0x71, 0x75, 0x65, 0x6E, 0x74, 0x69, 
    0x61, 0x6C, 0x5F, 0x35, 0x5F, 0x31, 0x2F, 0x6D, 0x61, 0x78, 0x5F, 0x70, 
    0x6F, 0x6F, 0x6C, 0x69, 0x6E, 0x67, 0x31, 0x64, 0x5F, 0x31, 0x31, 0x5F, 
    0x31, 0x2F, 0x4D, 0x61, 0x78, 0x50, 0x6F, 0x6F, 0x6C, 0x31, 0x64, 0x2F, 
    0x53, 0x71, 0x75, 0x65, 0x65, 0x7A, 0x65, 0x00, 0x03, 0x00, 0x00, 0x00, 
    0x01, 0x00, 0x00, 0x00, 0x3F, 0x1F, 0x00, 0x00, 0x08, 0x00, 0x00, 0x00, 
    0x6E, 0xF2, 0xFF, 0xFF, 0x00, 0x00, 0x00, 0x01, 0x14, 0x00, 0x00, 0x00, 
    0x24, 0x00, 0x00, 0x00, 0x24, 0x00, 0x00, 0x00, 0x23, 0x00, 0x00, 0x00, 
    0x4C, 0x00, 0x00, 0x00, 0x04, 0x00, 0x00, 0x00, 0xFF, 0xFF, 0xFF, 0xFF, 
    0x01, 0x00, 0x00, 0x00, 0x3F, 0x1F, 0x00, 0x00, 0x08, 0x00, 0x00, 0x00, 
    0xC4, 0xF1, 0xFF, 0xFF, 0x2B, 0x00, 0x00, 0x00, 0x73, 0x65, 0x71, 0x75, 
    0x65, 0x6E, 0x74, 0x69, 0x61, 0x6C, 0x5F, 0x35, 0x5F, 0x31, 0x2F, 0x6D, 
    0x61, 0x78, 0x5F, 0x70, 0x6F, 0x6F, 0x6C, 0x69, 0x6E, 0x67, 0x31, 0x64, 
    0x5F, 0x31, 0x31, 0x5F, 0x31, 0x2F, 0x4D, 0x61, 0x78, 0x50, 0x6F, 0x6F, 
    0x6C, 0x31, 0x64, 0x00, 0x04, 0x00, 0x00, 0x00, 0x01, 0x00, 0x00, 0x00, 
    0x01, 0x00, 0x00, 0x00, 0x3F, 0x1F, 0x00, 0x00, 0x08, 0x00, 0x00, 0x00, 
    0xE6, 0xF2, 0xFF, 0xFF, 0x00, 0x00, 0x00, 0x01, 0x14, 0x00, 0x00, 0x00, 
    0x24, 0x00, 0x00, 0x00, 0x24, 0x00, 0x00, 0x00, 0x22, 0x00, 0x00, 0x00, 
    0x58, 0x00, 0x00, 0x00, 0x04, 0x00, 0x00, 0x00, 0xFF, 0xFF, 0xFF, 0xFF, 
    0x01, 0x00, 0x00, 0x00, 0x7E, 0x3E, 0x00, 0x00, 0x08, 0x00, 0x00, 0x00, 
    0x3C, 0xF2, 0xFF, 0xFF, 0x36, 0x00, 0x00, 0x00, 0x73, 0x65, 0x71, 0x75, 
    0x65, 0x6E, 0x74, 0x69, 0x61, 0x6C, 0x5F, 0x35, 0x5F, 0x31, 0x2F, 0x6D, 
    0x61, 0x78, 0x5F, 0x70, 0x6F, 0x6F, 0x6C, 0x69, 0x6E, 0x67, 0x31, 0x64, 
    0x5F, 0x31, 0x31, 0x5F, 0x31, 0x2F, 0x4D, 0x61, 0x78, 0x50, 0x6F, 0x6F, 
    0x6C, 0x31, 0x64, 0x2F, 0x45, 0x78, 0x70, 0x61, 0x6E, 0x64, 0x44, 0x69, 
    0x6D, 0x73, 0x00, 0x00, 0x04, 0x00, 0x00, 0x00, 0x01, 0x00, 0x00, 0x00, 
    0x01, 0x00, 0x00, 0x00, 0x7E, 0x3E, 0x00, 0x00, 0x08, 0x00, 0x00, 0x00, 
    0x6A, 0xF3, 0xFF, 0xFF, 0x00, 0x00, 0x00, 0x01, 0x14, 0x00, 0x00, 0x00, 
    0x20, 0x00, 0x00, 0x00, 0x20, 0x00, 0x00, 0x00, 0x21, 0x00, 0x00, 0x00, 
    0x5C, 0x00, 0x00, 0x00, 0x03, 0x00, 0x00, 0x00, 0xFF, 0xFF, 0xFF, 0xFF, 
    0x7E, 0x3E, 0x00, 0x00, 0x08, 0x00, 0x00, 0x00, 0xBC, 0xF2, 0xFF, 0xFF, 
    0x3E, 0x00, 0x00, 0x00, 0x73, 0x65, 0x71, 0x75, 0x65, 0x6E, 0x74, 0x69, 
    0x61, 0x6C, 0x5F, 0x35, 0x5F, 0x31, 0x2F, 0x63, 0x6F, 0x6E, 0x76, 0x31, 
    0x64, 0x5F, 0x31, 0x31, 0x5F, 0x31, 0x2F, 0x52, 0x65, 0x6C, 0x75, 0x3B, 
    0x73, 0x65, 0x71, 0x75, 0x65, 0x6E, 0x74, 0x69, 0x61, 0x6C, 0x5F, 0x35, 
    0x5F, 0x31, 0x2F, 0x63, 0x6F, 0x6E, 0x76, 0x31, 0x64, 0x5F, 0x31, 0x31, 
    0x5F, 0x31, 0x2F, 0x61, 0x64, 0x64, 0x00, 0x00, 0x03, 0x00, 0x00, 0x00, 
    0x01, 0x00, 0x00, 0x00, 0x7E, 0x3E, 0x00, 0x00, 0x08, 0x00, 0x00, 0x00, 
    0xEE, 0xF3, 0xFF, 0xFF, 0x00, 0x00, 0x00, 0x01, 0x14, 0x00, 0x00, 0x00, 
    0x20, 0x00, 0x00, 0x00, 0x20, 0x00, 0x00, 0x00, 0x20, 0x00, 0x00, 0x00, 
    0x4C, 0x00, 0x00, 0x00, 0x03, 0x00, 0x00, 0x00, 0xFF, 0xFF, 0xFF, 0xFF, 
    0x7E, 0x3E, 0x00, 0x00, 0x08, 0x00, 0x00, 0x00, 0x40, 0xF3, 0xFF, 0xFF, 
    0x2E, 0x00, 0x00, 0x00, 0x73, 0x65, 0x71, 0x75, 0x65, 0x6E, 0x74, 0x69, 
    0x61, 0x6C, 0x5F, 0x35, 0x5F, 0x31, 0x2F, 0x63, 0x6F, 0x6E, 0x76, 0x31, 
    0x64, 0x5F, 0x31, 0x31, 0x5F, 0x31, 0x2F, 0x63, 0x6F, 0x6E, 0x76, 0x6F, 
    0x6C, 0x75, 0x74, 0x69, 0x6F, 0x6E, 0x2F, 0x53, 0x71, 0x75, 0x65, 0x65, 
    0x7A, 0x65, 0x00, 0x00, 0x03, 0x00, 0x00, 0x00, 0x01, 0x00, 0x00, 0x00, 
    0x7E, 0x3E, 0x00, 0x00, 0x08, 0x00, 0x00, 0x00, 0x62, 0xF4, 0xFF, 0xFF, 
    0x00, 0x00, 0x00, 0x01, 0x14, 0x00, 0x00, 0x00, 0x24, 0x00, 0x00, 0x00, 
    0x24, 0x00, 0x00, 0x00, 0x1F, 0x00, 0x00, 0x00, 0x48, 0x00, 0x00, 0x00, 
    0x04, 0x00, 0x00, 0x00, 0xFF, 0xFF, 0xFF, 0xFF, 0x01, 0x00, 0x00, 0x00, 
    0x7E, 0x3E, 0x00, 0x00, 0x08, 0x00, 0x00, 0x00, 0xB8, 0xF3, 0xFF, 0xFF, 
    0x26, 0x00, 0x00, 0x00, 0x73, 0x65, 0x71, 0x75, 0x65, 0x6E, 0x74, 0x69, 
    0x61, 0x6C, 0x5F, 0x35, 0x5F, 0x31, 0x2F, 0x63, 0x6F, 0x6E, 0x76, 0x31, 
    0x64, 0x5F, 0x31, 0x31, 0x5F, 0x31, 0x2F, 0x63, 0x6F, 0x6E, 0x76, 0x6F, 
    0x6C, 0x75, 0x74, 0x69, 0x6F, 0x6E, 0x00, 0x00, 0x04, 0x00, 0x00, 0x00, 
    0x01, 0x00, 0x00, 0x00, 0x01, 0x00, 0x00, 0x00, 0x7E, 0x3E, 0x00, 0x00, 
    0x08, 0x00, 0x00, 0x00, 0xD6, 0xF4, 0xFF, 0xFF, 0x00, 0x00, 0x00, 0x01, 
    0x14, 0x00, 0x00, 0x00, 0x24, 0x00, 0x00, 0x00, 0x24, 0x00, 0x00, 0x00, 
    0x1E, 0x00, 0x00, 0x00, 0x54, 0x00, 0x00, 0x00, 0x04, 0x00, 0x00, 0x00, 
    0xFF, 0xFF, 0xFF, 0xFF, 0x01, 0x00, 0x00, 0x00, 0x80, 0x3E, 0x00, 0x00, 
    0x01, 0x00, 0x00, 0x00, 0x2C, 0xF4, 0xFF, 0xFF, 0x31, 0x00, 0x00, 0x00, 
    0x73, 0x65, 0x71, 0x75, 0x65, 0x6E, 0x74, 0x69, 0x61, 0x6C, 0x5F, 0x35, 
    0x5F, 0x31, 0x2F, 0x63, 0x6F, 0x6E, 0x76, 0x31, 0x64, 0x5F, 0x31, 0x31, 
    0x5F, 0x31, 0x2F, 0x63, 0x6F, 0x6E, 0x76, 0x6F, 0x6C, 0x75, 0x74, 0x69, 
    0x6F, 0x6E, 0x2F, 0x45, 0x78, 0x70, 0x61, 0x6E, 0x64, 0x44, 0x69, 0x6D, 
    0x73, 0x00, 0x00, 0x00, 0x04, 0x00, 0x00, 0x00, 0x01, 0x00, 0x00, 0x00, 
    0x01, 0x00, 0x00, 0x00, 0x80, 0x3E, 0x00, 0x00, 0x01, 0x00, 0x00, 0x00, 
    0x56, 0xF5, 0xFF, 0xFF, 0x00, 0x00, 0x00, 0x01, 0x14, 0x00, 0x00, 0x00, 
    0x20, 0x00, 0x00, 0x00, 0x20, 0x00, 0x00, 0x00, 0x1D, 0x00, 0x00, 0x00, 
    0x40, 0x00, 0x00, 0x00, 0x03, 0x00, 0x00, 0x00, 0xFF, 0xFF, 0xFF, 0xFF, 
    0x80, 0x3E, 0x00, 0x00, 0x01, 0x00, 0x00, 0x00, 0xA8, 0xF4, 0xFF, 0xFF, 
    0x22, 0x00, 0x00, 0x00, 0x73, 0x65, 0x71, 0x75, 0x65, 0x6E, 0x74, 0x69, 
    0x61, 0x6C, 0x5F, 0x35, 0x5F, 0x31, 0x2F, 0x72, 0x65, 0x73, 0x68, 0x61, 
    0x70, 0x65, 0x5F, 0x35, 0x5F, 0x31, 0x2F, 0x52, 0x65, 0x73, 0x68, 0x61, 
    0x70, 0x65, 0x00, 0x00, 0x03, 0x00, 0x00, 0x00, 0x01, 0x00, 0x00, 0x00, 
    0x80, 0x3E, 0x00, 0x00, 0x01, 0x00, 0x00, 0x00, 0x0E, 0xF6, 0xFF, 0xFF, 
    0x00, 0x00, 0x00, 0x01, 0x14, 0x00, 0x00, 0x00, 0x14, 0x00, 0x00, 0x00, 
    0x1C, 0x00, 0x00, 0x00, 0x00, 0x00, 0x00, 0x02, 0x38, 0x00, 0x00, 0x00, 
    0x00, 0xF5, 0xFF, 0xFF, 0x28, 0x00, 0x00, 0x00, 0x73, 0x65, 0x71, 0x75, 
    0x65, 0x6E, 0x74, 0x69, 0x61, 0x6C, 0x5F, 0x35, 0x5F, 0x31, 0x2F, 0x72, 
    0x65, 0x73, 0x68, 0x61, 0x70, 0x65, 0x5F, 0x35, 0x5F, 0x31, 0x2F, 0x52, 
    0x65, 0x73, 0x68, 0x61, 0x70, 0x65, 0x2F, 0x73, 0x68, 0x61, 0x70, 0x65, 
    0x00, 0x00, 0x00, 0x00, 0x01, 0x00, 0x00, 0x00, 0x03, 0x00, 0x00, 0x00, 
    0x66, 0xF6, 0xFF, 0xFF, 0x00, 0x00, 0x00, 0x01, 0x14, 0x00, 0x00, 0x00, 
    0x14, 0x00, 0x00, 0x00, 0x1B, 0x00, 0x00, 0x00, 0x00, 0x00, 0x00, 0x02, 
    0x38, 0x00, 0x00, 0x00, 0x58, 0xF5, 0xFF, 0xFF, 0x28, 0x00, 0x00, 0x00, 
    0x73, 0x65, 0x71, 0x75, 0x65, 0x6E, 0x74, 0x69, 0x61, 0x6C, 0x5F, 0x35, 
    0x5F, 0x31, 0x2F, 0x72, 0x65, 0x73, 0x68, 0x61, 0x70, 0x65, 0x5F, 0x35, 
    0x5F, 0x31, 0x2F, 0x73, 0x74, 0x72, 0x69, 0x64, 0x65, 0x64, 0x5F, 0x73, 
    0x6C, 0x69, 0x63, 0x65, 0x00, 0x00, 0x00, 0x00, 0x00, 0x00, 0x00, 0x00, 
    0xBA, 0xF6, 0xFF, 0xFF, 0x00, 0x00, 0x00, 0x01, 0x14, 0x00, 0x00, 0x00, 
    0x14, 0x00, 0x00, 0x00, 0x1A, 0x00, 0x00, 0x00, 0x00, 0x00, 0x00, 0x02, 
    0x30, 0x00, 0x00, 0x00, 0xAC, 0xF5, 0xFF, 0xFF, 0x20, 0x00, 0x00, 0x00, 
    0x73, 0x65, 0x71, 0x75, 0x65, 0x6E, 0x74, 0x69, 0x61, 0x6C, 0x5F, 0x35, 
    0x5F, 0x31, 0x2F, 0x72, 0x65, 0x73, 0x68, 0x61, 0x70, 0x65, 0x5F, 0x35, 
    0x5F, 0x31, 0x2F, 0x53, 0x68, 0x61, 0x70, 0x65, 0x00, 0x00, 0x00, 0x00, 
    0x01, 0x00, 0x00, 0x00, 0x02, 0x00, 0x00, 0x00, 0x0A, 0xF7, 0xFF, 0xFF, 
    0x00, 0x00, 0x00, 0x01, 0x14, 0x00, 0x00, 0x00, 0xA4, 0x01, 0x00, 0x00, 
    0x19, 0x00, 0x00, 0x00, 0x00, 0x00, 0x00, 0x09, 0xB0, 0x01, 0x00, 0x00, 
    0x2C, 0xFE, 0xFF, 0xFF, 0x08, 0x00, 0x00, 0x00, 0x08, 0x01, 0x00, 0x00, 
    0x20, 0x00, 0x00, 0x00, 0x00, 0x00, 0x00, 0x00, 0x00, 0x00, 0x00, 0x00, 
    0x00, 0x00, 0x00, 0x00, 0x00, 0x00, 0x00, 0x00, 0x00, 0x00, 0x00, 0x00, 
    0x00, 0x00, 0x00, 0x00, 0x00, 0x00, 0x00, 0x00, 0x00, 0x00, 0x00, 0x00, 
    0x00, 0x00, 0x00, 0x00, 0x00, 0x00, 0x00, 0x00, 0x00, 0x00, 0x00, 0x00, 
    0x00, 0x00, 0x00, 0x00, 0x00, 0x00, 0x00, 0x00, 0x00, 0x00, 0x00, 0x00, 
    0x00, 0x00, 0x00, 0x00, 0x00, 0x00, 0x00, 0x00, 0x00, 0x00, 0x00, 0x00, 
    0x00, 0x00, 0x00, 0x00, 0x00, 0x00, 0x00, 0x00, 0x00, 0x00, 0x00, 0x00, 
    0x00, 0x00, 0x00, 0x00, 0x00, 0x00, 0x00, 0x00, 0x00, 0x00, 0x00, 0x00, 
    0x00, 0x00, 0x00, 0x00, 0x00, 0x00, 0x00, 0x00, 0x00, 0x00, 0x00, 0x00, 
    0x00, 0x00, 0x00, 0x00, 0x00, 0x00, 0x00, 0x00, 0x00, 0x00, 0x00, 0x00, 
    0x00, 0x00, 0x00, 0x00, 0x00, 0x00, 0x00, 0x00, 0x00, 0x00, 0x00, 0x00, 
    0x00, 0x00, 0x00, 0x00, 0x00, 0x00, 0x00, 0x00, 0x00, 0x00, 0x00, 0x00, 
    0x00, 0x00, 0x00, 0x00, 0x00, 0x00, 0x00, 0x00, 0x00, 0x00, 0x00, 0x00, 
    0x00, 0x00, 0x00, 0x00, 0x00, 0x00, 0x00, 0x00, 0x00, 0x00, 0x00, 0x00, 
    0x00, 0x00, 0x00, 0x00, 0x00, 0x00, 0x00, 0x00, 0x00, 0x00, 0x00, 0x00, 
    0x00, 0x00, 0x00, 0x00, 0x00, 0x00, 0x00, 0x00, 0x00, 0x00, 0x00, 0x00, 
    0x00, 0x00, 0x00, 0x00, 0x00, 0x00, 0x00, 0x00, 0x00, 0x00, 0x00, 0x00, 
    0x00, 0x00, 0x00, 0x00, 0x00, 0x00, 0x00, 0x00, 0x00, 0x00, 0x00, 0x00, 
    0x00, 0x00, 0x00, 0x00, 0x00, 0x00, 0x00, 0x00, 0x00, 0x00, 0x00, 0x00, 
    0x00, 0x00, 0x00, 0x00, 0x00, 0x00, 0x00, 0x00, 0x00, 0x00, 0x00, 0x00, 
    0x00, 0x00, 0x00, 0x00, 0x00, 0x00, 0x00, 0x00, 0x00, 0x00, 0x00, 0x00, 
    0x00, 0x00, 0x00, 0x00, 0x00, 0x00, 0x00, 0x00, 0x20, 0x00, 0x00, 0x00, 
    0xD3, 0x78, 0x23, 0x3B, 0x39, 0x88, 0x19, 0x3B, 0xCA, 0x26, 0x1F, 0x3B, 
    0x18, 0x6E, 0x11, 0x3B, 0x04, 0xB4, 0x2A, 0x3B, 0xDF, 0x82, 0x11, 0x3B, 
    0x92, 0xE4, 0x1B, 0x3B, 0xFC, 0x07, 0x1C, 0x3B, 0xBA, 0x5D, 0x22, 0x3B, 
    0x2C, 0x29, 0x33, 0x3B, 0xBD, 0x05, 0x21, 0x3B, 0xEA, 0xC2, 0x28, 0x3B, 
    0xE9, 0x0F, 0x24, 0x3B, 0x22, 0xCD, 0x20, 0x3B, 0xB4, 0xDB, 0x1B, 0x3B, 
    0xCD, 0xDD, 0x23, 0x3B, 0xFE, 0xE6, 0x1B, 0x3B, 0xB7, 0x6F, 0x28, 0x3B, 
    0x4F, 0x58, 0x2F, 0x3B, 0xCD, 0x32, 0x1E, 0x3B, 0x8C, 0x92, 0x1A, 0x3B, 
    0x37, 0xD2, 0x1D, 0x3B, 0x68, 0x7D, 0x1E, 0x3B, 0x99, 0x6C, 0x23, 0x3B, 
    0xAA, 0xD0, 0x22, 0x3B, 0xCF, 0x18, 0x1D, 0x3B, 0x14, 0xCB, 0x25, 0x3B, 
    0xDA, 0xFE, 0x1C, 0x3B, 0x5B, 0xF6, 0x32, 0x3B, 0xB0, 0xA2, 0x22, 0x3B, 
    0x89, 0x62, 0x30, 0x3B, 0xF6, 0xFB, 0x13, 0x3B, 0x12, 0x00, 0x00, 0x00, 
    0x74, 0x66, 0x6C, 0x2E, 0x70, 0x73, 0x65, 0x75, 0x64, 0x6F, 0x5F, 0x71, 
    0x63, 0x6F, 0x6E, 0x73, 0x74, 0x31, 0x00, 0x00, 0x02, 0x00, 0x00, 0x00, 
    0x20, 0x00, 0x00, 0x00, 0x20, 0x00, 0x00, 0x00, 0xDE, 0xF8, 0xFF, 0xFF, 
    0x00, 0x00, 0x00, 0x01, 0x20, 0x00, 0x00, 0x00, 0xB4, 0x01, 0x00, 0x00, 
    0x18, 0x00, 0x00, 0x00, 0x00, 0x00, 0x00, 0x09, 0xC0, 0x01, 0x00, 0x00, 
    0x0C, 0x00, 0x0C, 0x00, 0x00, 0x00, 0x00, 0x00, 0x08, 0x00, 0x04, 0x00, 
    0x0C, 0x00, 0x00, 0x00, 0x08, 0x00, 0x00, 0x00, 0x0C, 0x01, 0x00, 0x00, 
    0x20, 0x00, 0x00, 0x00, 0x00, 0x00, 0x00, 0x00, 0x00, 0x00, 0x00, 0x00, 
    0x00, 0x00, 0x00, 0x00, 0x00, 0x00, 0x00, 0x00, 0x00, 0x00, 0x00, 0x00, 
    0x00, 0x00, 0x00, 0x00, 0x00, 0x00, 0x00, 0x00, 0x00, 0x00, 0x00, 0x00, 
    0x00, 0x00, 0x00, 0x00, 0x00, 0x00, 0x00, 0x00, 0x00, 0x00, 0x00, 0x00, 
    0x00, 0x00, 0x00, 0x00, 0x00, 0x00, 0x00, 0x00, 0x00, 0x00, 0x00, 0x00, 
    0x00, 0x00, 0x00, 0x00, 0x00, 0x00, 0x00, 0x00, 0x00, 0x00, 0x00, 0x00, 
    0x00, 0x00, 0x00, 0x00, 0x00, 0x00, 0x00, 0x00, 0x00, 0x00, 0x00, 0x00, 
    0x00, 0x00, 0x00, 0x00, 0x00, 0x00, 0x00, 0x00, 0x00, 0x00, 0x00, 0x00, 
    0x00, 0x00, 0x00, 0x00, 0x00, 0x00, 0x00, 0x00, 0x00, 0x00, 0x00, 0x00, 
    0x00, 0x00, 0x00, 0x00, 0x00, 0x00, 0x00, 0x00, 0x00, 0x00, 0x00, 0x00, 
    0x00, 0x00, 0x00, 0x00, 0x00, 0x00, 0x00, 0x00, 0x00, 0x00, 0x00, 0x00, 
    0x00, 0x00, 0x00, 0x00, 0x00, 0x00, 0x00, 0x00, 0x00, 0x00, 0x00, 0x00, 
    0x00, 0x00, 0x00, 0x00, 0x00, 0x00, 0x00, 0x00, 0x00, 0x00, 0x00, 0x00, 
    0x00, 0x00, 0x00, 0x00, 0x00, 0x00, 0x00, 0x00, 0x00, 0x00, 0x00, 0x00, 
    0x00, 0x00, 0x00, 0x00, 0x00, 0x00, 0x00, 0x00, 0x00, 0x00, 0x00, 0x00, 
    0x00, 0x00, 0x00, 0x00, 0x00, 0x00, 0x00, 0x00, 0x00, 0x00, 0x00, 0x00, 
    0x00, 0x00, 0x00, 0x00, 0x00, 0x00, 0x00, 0x00, 0x00, 0x00, 0x00, 0x00, 
    0x00, 0x00, 0x00, 0x00, 0x00, 0x00, 0x00, 0x00, 0x00, 0x00, 0x00, 0x00, 
    0x00, 0x00, 0x00, 0x00, 0x00, 0x00, 0x00, 0x00, 0x00, 0x00, 0x00, 0x00, 
    0x00, 0x00, 0x00, 0x00, 0x00, 0x00, 0x00, 0x00, 0x00, 0x00, 0x00, 0x00, 
    0x00, 0x00, 0x00, 0x00, 0x00, 0x00, 0x00, 0x00, 0x00, 0x00, 0x00, 0x00, 
    0x00, 0x00, 0x00, 0x00, 0x00, 0x00, 0x00, 0x00, 0x00, 0x00, 0x00, 0x00, 
    0x20, 0x00, 0x00, 0x00, 0xF9, 0xBE, 0xD9, 0x3A, 0xDE, 0xC8, 0xDA, 0x3A, 
    0x25, 0xDC, 0xE0, 0x3A, 0xBF, 0xAD, 0xE3, 0x3A, 0xAF, 0xE7, 0xF0, 0x3A, 
    0xE8, 0xF8, 0xD9, 0x3A, 0x7A, 0x3A, 0xE0, 0x3A, 0x83, 0x9A, 0xD7, 0x3A, 
    0x94, 0xED, 0xC4, 0x3A, 0xF4, 0x96, 0xE5, 0x3A, 0x81, 0x16, 0xD5, 0x3A, 
    0xDA, 0x23, 0x06, 0x3B, 0xFA, 0x2E, 0xDD, 0x3A, 0xFE, 0xFF, 0xE1, 0x3A, 
    0x1B, 0x00, 0xDF, 0x3A, 0xD0, 0x61, 0xD6, 0x3A, 0xA2, 0x63, 0xD2, 0x3A, 
    0x21, 0x2D, 0xD4, 0x3A, 0x72, 0xA2, 0xE7, 0x3A, 0x7B, 0x37, 0xE2, 0x3A, 
    0xA9, 0x60, 0xD1, 0x3A, 0xDA, 0x9B, 0xCD, 0x3A, 0x4C, 0x5E, 0xDF, 0x3A, 
    0x53, 0x54, 0xCA, 0x3A, 0x26, 0x1D, 0xDC, 0x3A, 0x10, 0xD4, 0xC5, 0x3A, 
    0x89, 0xB5, 0xCF, 0x3A, 0x5E, 0x63, 0xD6, 0x3A, 0xB9, 0xBA, 0xE4, 0x3A, 
    0x3B, 0x43, 0x01, 0x3B, 0x8F, 0x81, 0xD9, 0x3A, 0xCB, 0x1C, 0xDE, 0x3A, 
    0x11, 0x00, 0x00, 0x00, 0x74, 0x66, 0x6C, 0x2E, 0x70, 0x73, 0x65, 0x75, 
    0x64, 0x6F, 0x5F, 0x71, 0x63, 0x6F, 0x6E, 0x73, 0x74, 0x00, 0x00, 0x00, 
    0x04, 0x00, 0x00, 0x00, 0x20, 0x00, 0x00, 0x00, 0x01, 0x00, 0x00, 0x00, 
    0x03, 0x00, 0x00, 0x00, 0x10, 0x00, 0x00, 0x00, 0xCA, 0xFA, 0xFF, 0xFF, 
    0x00, 0x00, 0x00, 0x01, 0x14, 0x00, 0x00, 0x00, 0x14, 0x00, 0x00, 0x00, 
    0x17, 0x00, 0x00, 0x00, 0x00, 0x00, 0x00, 0x02, 0x20, 0x00, 0x00, 0x00, 
    0xBC, 0xF9, 0xFF, 0xFF, 0x10, 0x00, 0x00, 0x00, 0x61, 0x72, 0x69, 0x74, 
    0x68, 0x2E, 0x63, 0x6F, 0x6E, 0x73, 0x74, 0x61, 0x6E, 0x74, 0x32, 0x31, 
    0x00, 0x00, 0x00, 0x00, 0x01, 0x00, 0x00, 0x00, 0x03, 0x00, 0x00, 0x00, 
    0x0A, 0xFB, 0xFF, 0xFF, 0x00, 0x00, 0x00, 0x01, 0x14, 0x00, 0x00, 0x00, 
    0x14, 0x00, 0x00, 0x00, 0x16, 0x00, 0x00, 0x00, 0x00, 0x00, 0x00, 0x02, 
    0x20, 0x00, 0x00, 0x00, 0xFC, 0xF9, 0xFF, 0xFF, 0x10, 0x00, 0x00, 0x00, 
    0x61, 0x72, 0x69, 0x74, 0x68, 0x2E, 0x63, 0x6F, 0x6E, 0x73, 0x74, 0x61, 
    0x6E, 0x74, 0x32, 0x30, 0x00, 0x00, 0x00, 0x00, 0x01, 0x00, 0x00, 0x00, 
    0x03, 0x00, 0x00, 0x00, 0x4A, 0xFB, 0xFF, 0xFF, 0x00, 0x00, 0x00, 0x01, 
    0x14, 0x00, 0x00, 0x00, 0x14, 0x00, 0x00, 0x00, 0x15, 0x00, 0x00, 0x00, 
    0x00, 0x00, 0x00, 0x02, 0x20, 0x00, 0x00, 0x00, 0x3C, 0xFA, 0xFF, 0xFF, 
    0x10, 0x00, 0x00, 0x00, 0x61, 0x72, 0x69, 0x74, 0x68, 0x2E, 0x63, 0x6F, 
    0x6E, 0x73, 0x74, 0x61, 0x6E, 0x74, 0x31, 0x39, 0x00, 0x00, 0x00, 0x00, 
    0x01, 0x00, 0x00, 0x00, 0x03, 0x00, 0x00, 0x00, 0x8A, 0xFB, 0xFF, 0xFF, 
    0x00, 0x00, 0x00, 0x01, 0x14, 0x00, 0x00, 0x00, 0x14, 0x00, 0x00, 0x00, 
    0x14, 0x00, 0x00, 0x00, 0x00, 0x00, 0x00, 0x02, 0x20, 0x00, 0x00, 0x00, 
    0x7C, 0xFA, 0xFF, 0xFF, 0x10, 0x00, 0x00, 0x00, 0x61, 0x72, 0x69, 0x74, 
    0x68, 0x2E, 0x63, 0x6F, 0x6E, 0x73, 0x74, 0x61, 0x6E, 0x74, 0x31, 0x38, 
    0x00, 0x00, 0x00, 0x00, 0x01, 0x00, 0x00, 0x00, 0x03, 0x00, 0x00, 0x00, 
    0xCA, 0xFB, 0xFF, 0xFF, 0x00, 0x00, 0x00, 0x01, 0x14, 0x00, 0x00, 0x00, 
    0x14, 0x00, 0x00, 0x00, 0x13, 0x00, 0x00, 0x00, 0x00, 0x00, 0x00, 0x02, 
    0x20, 0x00, 0x00, 0x00, 0xBC, 0xFA, 0xFF, 0xFF, 0x10, 0x00, 0x00, 0x00, 
    0x61, 0x72, 0x69, 0x74, 0x68, 0x2E, 0x63, 0x6F, 0x6E, 0x73, 0x74, 0x61, 
    0x6E, 0x74, 0x31, 0x37, 0x00, 0x00, 0x00, 0x00, 0x01, 0x00, 0x00, 0x00, 
    0x03, 0x00, 0x00, 0x00, 0x0A, 0xFC, 0xFF, 0xFF, 0x00, 0x00, 0x00, 0x01, 
    0x14, 0x00, 0x00, 0x00, 0x14, 0x00, 0x00, 0x00, 0x12, 0x00, 0x00, 0x00, 
    0x00, 0x00, 0x00, 0x02, 0x20, 0x00, 0x00, 0x00, 0xFC, 0xFA, 0xFF, 0xFF, 
    0x10, 0x00, 0x00, 0x00, 0x61, 0x72, 0x69, 0x74, 0x68, 0x2E, 0x63, 0x6F, 
    0x6E, 0x73, 0x74, 0x61, 0x6E, 0x74, 0x31, 0x36, 0x00, 0x00, 0x00, 0x00, 
    0x01, 0x00, 0x00, 0x00, 0x03, 0x00, 0x00, 0x00, 0x82, 0xFD, 0xFF, 0xFF, 
    0x00, 0x00, 0x00, 0x01, 0x10, 0x00, 0x00, 0x00, 0x10, 0x00, 0x00, 0x00, 
    0x11, 0x00, 0x00, 0x00, 0x20, 0x00, 0x00, 0x00, 0x38, 0xFB, 0xFF, 0xFF, 
    0x10, 0x00, 0x00, 0x00, 0x61, 0x72, 0x69, 0x74, 0x68, 0x2E, 0x63, 0x6F, 
    0x6E, 0x73, 0x74, 0x61, 0x6E, 0x74, 0x31, 0x35, 0x00, 0x00, 0x00, 0x00, 
    0x01, 0x00, 0x00, 0x00, 0x20, 0x00, 0x00, 0x00, 0xBE, 0xFD, 0xFF, 0xFF, 
    0x00, 0x00, 0x00, 0x01, 0x10, 0x00, 0x00, 0x00, 0x10, 0x00, 0x00, 0x00, 
    0x10, 0x00, 0x00, 0x00, 0x20, 0x00, 0x00, 0x00, 0x74, 0xFB, 0xFF, 0xFF, 
    0x10, 0x00, 0x00, 0x00, 0x61, 0x72, 0x69, 0x74, 0x68, 0x2E, 0x63, 0x6F, 
    0x6E, 0x73, 0x74, 0x61, 0x6E, 0x74, 0x31, 0x34, 0x00, 0x00, 0x00, 0x00, 
    0x04, 0x00, 0x00, 0x00, 0x10, 0x00, 0x00, 0x00, 0x01, 0x00, 0x00, 0x00, 
    0x03, 0x00, 0x00, 0x00, 0x08, 0x00, 0x00, 0x00, 0x06, 0xFE, 0xFF, 0xFF, 
    0x00, 0x00, 0x00, 0x01, 0x10, 0x00, 0x00, 0x00, 0x10, 0x00, 0x00, 0x00, 
    0x0F, 0x00, 0x00, 0x00, 0x20, 0x00, 0x00, 0x00, 0xBC, 0xFB, 0xFF, 0xFF, 
    0x10, 0x00, 0x00, 0x00, 0x61, 0x72, 0x69, 0x74, 0x68, 0x2E, 0x63, 0x6F, 
    0x6E, 0x73, 0x74, 0x61, 0x6E, 0x74, 0x31, 0x33, 0x00, 0x00, 0x00, 0x00, 
    0x01, 0x00, 0x00, 0x00, 0x10, 0x00, 0x00, 0x00, 0x42, 0xFE, 0xFF, 0xFF, 
    0x00, 0x00, 0x00, 0x01, 0x10, 0x00, 0x00, 0x00, 0x10, 0x00, 0x00, 0x00, 
    0x0E, 0x00, 0x00, 0x00, 0x20, 0x00, 0x00, 0x00, 0xF8, 0xFB, 0xFF, 0xFF, 
    0x10, 0x00, 0x00, 0x00, 0x61, 0x72, 0x69, 0x74, 0x68, 0x2E, 0x63, 0x6F, 
    0x6E, 0x73, 0x74, 0x61, 0x6E, 0x74, 0x31, 0x32, 0x00, 0x00, 0x00, 0x00, 
    0x04, 0x00, 0x00, 0x00, 0x08, 0x00, 0x00, 0x00, 0x01, 0x00, 0x00, 0x00, 
    0x03, 0x00, 0x00, 0x00, 0x01, 0x00, 0x00, 0x00, 0x8A, 0xFE, 0xFF, 0xFF, 
    0x00, 0x00, 0x00, 0x01, 0x10, 0x00, 0x00, 0x00, 0x10, 0x00, 0x00, 0x00, 
    0x0D, 0x00, 0x00, 0x00, 0x20, 0x00, 0x00, 0x00, 0x40, 0xFC, 0xFF, 0xFF, 
    0x10, 0x00, 0x00, 0x00, 0x61, 0x72, 0x69, 0x74, 0x68, 0x2E, 0x63, 0x6F, 
    0x6E, 0x73, 0x74, 0x61, 0x6E, 0x74, 0x31, 0x31, 0x00, 0x00, 0x00, 0x00, 
    0x01, 0x00, 0x00, 0x00, 0x08, 0x00, 0x00, 0x00, 0xC6, 0xFE, 0xFF, 0xFF, 
    0x00, 0x00, 0x00, 0x01, 0x10, 0x00, 0x00, 0x00, 0x10, 0x00, 0x00, 0x00, 
    0x0C, 0x00, 0x00, 0x00, 0x20, 0x00, 0x00, 0x00, 0x7C, 0xFC, 0xFF, 0xFF, 
    0x10, 0x00, 0x00, 0x00, 0x61, 0x72, 0x69, 0x74, 0x68, 0x2E, 0x63, 0x6F, 
    0x6E, 0x73, 0x74, 0x61, 0x6E, 0x74, 0x31, 0x30, 0x00, 0x00, 0x00, 0x00, 
    0x02, 0x00, 0x00, 0x00, 0x02, 0x00, 0x00, 0x00, 0x20, 0x00, 0x00, 0x00, 
    0x06, 0xFF, 0xFF, 0xFF, 0x00, 0x00, 0x00, 0x01, 0x10, 0x00, 0x00, 0x00, 
    0x10, 0x00, 0x00, 0x00, 0x0B, 0x00, 0x00, 0x00, 0x1C, 0x00, 0x00, 0x00, 
    0xBC, 0xFC, 0xFF, 0xFF, 0x0F, 0x00, 0x00, 0x00, 0x61, 0x72, 0x69, 0x74, 
    0x68, 0x2E, 0x63, 0x6F, 0x6E, 0x73, 0x74, 0x61, 0x6E, 0x74, 0x39, 0x00, 
    0x03, 0x00, 0x00, 0x00, 0x01, 0x00, 0x00, 0x00, 0x01, 0x00, 0x00, 0x00, 
    0x20, 0x00, 0x00, 0x00, 0x46, 0xFF, 0xFF, 0xFF, 0x00, 0x00, 0x00, 0x01, 
    0x10, 0x00, 0x00, 0x00, 0x10, 0x00, 0x00, 0x00, 0x0A, 0x00, 0x00, 0x00, 
    0x1C, 0x00, 0x00, 0x00, 0xFC, 0xFC, 0xFF, 0xFF, 0x0F, 0x00, 0x00, 0x00, 
    0x61, 0x72, 0x69, 0x74, 0x68, 0x2E, 0x63, 0x6F, 0x6E, 0x73, 0x74, 0x61, 
    0x6E, 0x74, 0x38, 0x00, 0x03, 0x00, 0x00, 0x00, 0x01, 0x00, 0x00, 0x00, 
    0x01, 0x00, 0x00, 0x00, 0x10, 0x00, 0x00, 0x00, 0x86, 0xFF, 0xFF, 0xFF, 
    0x00, 0x00, 0x00, 0x01, 0x10, 0x00, 0x00, 0x00, 0x10, 0x00, 0x00, 0x00, 
    0x09, 0x00, 0x00, 0x00, 0x1C, 0x00, 0x00, 0x00, 0x3C, 0xFD, 0xFF, 0xFF, 
    0x0F, 0x00, 0x00, 0x00, 0x61, 0x72, 0x69, 0x74, 0x68, 0x2E, 0x63, 0x6F, 
    0x6E, 0x73, 0x74, 0x61, 0x6E, 0x74, 0x37, 0x00, 0x03, 0x00, 0x00, 0x00, 
    0x01, 0x00, 0x00, 0x00, 0x01, 0x00, 0x00, 0x00, 0x08, 0x00, 0x00, 0x00, 
    0xC6, 0xFF, 0xFF, 0xFF, 0x00, 0x00, 0x00, 0x01, 0x10, 0x00, 0x00, 0x00, 
    0x10, 0x00, 0x00, 0x00, 0x08, 0x00, 0x00, 0x00, 0x1C, 0x00, 0x00, 0x00, 
    0x7C, 0xFD, 0xFF, 0xFF, 0x0F, 0x00, 0x00, 0x00, 0x61, 0x72, 0x69, 0x74, 
    0x68, 0x2E, 0x63, 0x6F, 0x6E, 0x73, 0x74, 0x61, 0x6E, 0x74, 0x36, 0x00, 
    0x01, 0x00, 0x00, 0x00, 0x02, 0x00, 0x00, 0x00, 0x00, 0x00, 0x16, 0x00, 
    0x18, 0x00, 0x14, 0x00, 0x00, 0x00, 0x10, 0x00, 0x0C, 0x00, 0x08, 0x00, 
    0x00, 0x00, 0x00, 0x00, 0x00, 0x00, 0x07, 0x00, 0x16, 0x00, 0x00, 0x00, 
    0x00, 0x00, 0x00, 0x01, 0x10, 0x00, 0x00, 0x00, 0x10, 0x00, 0x00, 0x00, 
    0x07, 0x00, 0x00, 0x00, 0x1C, 0x00, 0x00, 0x00, 0xCC, 0xFD, 0xFF, 0xFF, 
    0x0F, 0x00, 0x00, 0x00, 0x61, 0x72, 0x69, 0x74, 0x68, 0x2E, 0x63, 0x6F, 
    0x6E, 0x73, 0x74, 0x61, 0x6E, 0x74, 0x35, 0x00, 0x01, 0x00, 0x00, 0x00, 
    0x20, 0x00, 0x00, 0x00, 0x16, 0xFF, 0xFF, 0xFF, 0x00, 0x00, 0x00, 0x01, 
    0x14, 0x00, 0x00, 0x00, 0x14, 0x00, 0x00, 0x00, 0x03, 0x00, 0x00, 0x00, 
    0x00, 0x00, 0x00, 0x02, 0x1C, 0x00, 0x00, 0x00, 0x08, 0xFE, 0xFF, 0xFF, 
    0x0F, 0x00, 0x00, 0x00, 0x61, 0x72, 0x69, 0x74, 0x68, 0x2E, 0x63, 0x6F, 
    0x6E, 0x73, 0x74, 0x61, 0x6E, 0x74, 0x34, 0x00, 0x01, 0x00, 0x00, 0x00, 
    0x01, 0x00, 0x00, 0x00, 0x52, 0xFF, 0xFF, 0xFF, 0x00, 0x00, 0x00, 0x01, 
    0x14, 0x00, 0x00, 0x00, 0x14, 0x00, 0x00, 0x00, 0x05, 0x00, 0x00, 0x00, 
    0x00, 0x00, 0x00, 0x02, 0x1C, 0x00, 0x00, 0x00, 0x44, 0xFE, 0xFF, 0xFF, 
    0x0F, 0x00, 0x00, 0x00, 0x61, 0x72, 0x69, 0x74, 0x68, 0x2E, 0x63, 0x6F, 
    0x6E, 0x73, 0x74, 0x61, 0x6E, 0x74, 0x33, 0x00, 0x01, 0x00, 0x00, 0x00, 
    0x01, 0x00, 0x00, 0x00, 0x8E, 0xFF, 0xFF, 0xFF, 0x00, 0x00, 0x00, 0x01, 
    0x14, 0x00, 0x00, 0x00, 0x14, 0x00, 0x00, 0x00, 0x04, 0x00, 0x00, 0x00, 
    0x00, 0x00, 0x00, 0x02, 0x1C, 0x00, 0x00, 0x00, 0x80, 0xFE, 0xFF, 0xFF, 
    0x0F, 0x00, 0x00, 0x00, 0x61, 0x72, 0x69, 0x74, 0x68, 0x2E, 0x63, 0x6F, 
    0x6E, 0x73, 0x74, 0x61, 0x6E, 0x74, 0x32, 0x00, 0x00, 0x00, 0x00, 0x00, 
    0xC6, 0xFF, 0xFF, 0xFF, 0x00, 0x00, 0x00, 0x01, 0x14, 0x00, 0x00, 0x00, 
    0x14, 0x00, 0x00, 0x00, 0x03, 0x00, 0x00, 0x00, 0x00, 0x00, 0x00, 0x02, 
    0x1C, 0x00, 0x00, 0x00, 0xB8, 0xFE, 0xFF, 0xFF, 0x0F, 0x00, 0x00, 0x00, 
    0x61, 0x72, 0x69, 0x74, 0x68, 0x2E, 0x63, 0x6F, 0x6E, 0x73, 0x74, 0x61, 
    0x6E, 0x74, 0x31, 0x00, 0x00, 0x00, 0x00, 0x00, 0x00, 0x00, 0x16, 0x00, 
    0x1C, 0x00, 0x18, 0x00, 0x17, 0x00, 0x10, 0x00, 0x0C, 0x00, 0x08, 0x00, 
    0x00, 0x00, 0x00, 0x00, 0x00, 0x00, 0x07, 0x00, 0x16, 0x00, 0x00, 0x00, 
    0x00, 0x00, 0x00, 0x01, 0x14, 0x00, 0x00, 0x00, 0x14, 0x00, 0x00, 0x00, 
    0x02, 0x00, 0x00, 0x00, 0x00, 0x00, 0x00, 0x02, 0x1C, 0x00, 0x00, 0x00, 
    0x08, 0xFF, 0xFF, 0xFF, 0x0E, 0x00, 0x00, 0x00, 0x61, 0x72, 0x69, 0x74, 
    0x68, 0x2E, 0x63, 0x6F, 0x6E, 0x73, 0x74, 0x61, 0x6E, 0x74, 0x00, 0x00, 
    0x00, 0x00, 0x00, 0x00, 0x00, 0x00, 0x16, 0x00, 0x1C, 0x00, 0x18, 0x00, 
    0x00, 0x00, 0x14, 0x00, 0x10, 0x00, 0x0C, 0x00, 0x00, 0x00, 0x00, 0x00, 
    0x08, 0x00, 0x07, 0x00, 0x16, 0x00, 0x00, 0x00, 0x00, 0x00, 0x00, 0x01, 
    0x14, 0x00, 0x00, 0x00, 0x1C, 0x00, 0x00, 0x00, 0x1C, 0x00, 0x00, 0x00, 
    0x01, 0x00, 0x00, 0x00, 0x3C, 0x00, 0x00, 0x00, 0x02, 0x00, 0x00, 0x00, 
    0xFF, 0xFF, 0xFF, 0xFF, 0x80, 0x3E, 0x00, 0x00, 0x64, 0xFF, 0xFF, 0xFF, 
    0x21, 0x00, 0x00, 0x00, 0x73, 0x65, 0x72, 0x76, 0x69, 0x6E, 0x67, 0x5F, 
    0x64, 0x65, 0x66, 0x61, 0x75, 0x6C, 0x74, 0x5F, 0x6B, 0x65, 0x72, 0x61, 
    0x73, 0x5F, 0x74, 0x65, 0x6E, 0x73, 0x6F, 0x72, 0x5F, 0x34, 0x39, 0x3A, 
    0x30, 0x00, 0x00, 0x00, 0x02, 0x00, 0x00, 0x00, 0x01, 0x00, 0x00, 0x00, 
    0x80, 0x3E, 0x00, 0x00, 0x0B, 0x00, 0x00, 0x00, 0xC0, 0x00, 0x00, 0x00, 
    0xA4, 0x00, 0x00, 0x00, 0x94, 0x00, 0x00, 0x00, 0x84, 0x00, 0x00, 0x00, 
    0x74, 0x00, 0x00, 0x00, 0x60, 0x00, 0x00, 0x00, 0x4C, 0x00, 0x00, 0x00, 
    0x38, 0x00, 0x00, 0x00, 0x28, 0x00, 0x00, 0x00, 0x14, 0x00, 0x00, 0x00, 
    0x04, 0x00, 0x00, 0x00, 0x78, 0xFF, 0xFF, 0xFF, 0x19, 0x00, 0x00, 0x00, 
    0x00, 0x00, 0x00, 0x19, 0xD0, 0xFF, 0xFF, 0xFF, 0x09, 0x00, 0x00, 0x00, 
    0x0C, 0x00, 0x00, 0x00, 0x00, 0x00, 0x00, 0x09, 0x94, 0xFF, 0xFF, 0xFF, 
    0x28, 0x00, 0x00, 0x00, 0x00, 0x00, 0x00, 0x28, 0xA0, 0xFF, 0xFF, 0xFF, 
    0x11, 0x00, 0x00, 0x00, 0x00, 0x00, 0x00, 0x11, 0x04, 0x00, 0x04, 0x00, 
    0x04, 0x00, 0x00, 0x00, 0x0C, 0x00, 0x10, 0x00, 0x0F, 0x00, 0x00, 0x00, 
    0x08, 0x00, 0x04, 0x00, 0x0C, 0x00, 0x00, 0x00, 0x03, 0x00, 0x00, 0x00, 
    0x05, 0x00, 0x00, 0x00, 0x00, 0x00, 0x00, 0x03, 0xD0, 0xFF, 0xFF, 0xFF, 
    0x46, 0x00, 0x00, 0x00, 0x00, 0x00, 0x00, 0x46, 0xDC, 0xFF, 0xFF, 0xFF, 
    0x16, 0x00, 0x00, 0x00, 0x00, 0x00, 0x00, 0x16, 0xE8, 0xFF, 0xFF, 0xFF, 
    0x53, 0x00, 0x00, 0x00, 0x00, 0x00, 0x00, 0x53, 0xF4, 0xFF, 0xFF, 0xFF, 
    0x2D, 0x00, 0x00, 0x00, 0x00, 0x00, 0x00, 0x2D, 0x0C, 0x00, 0x0C, 0x00, 
    0x0B, 0x00, 0x00, 0x00, 0x00, 0x00, 0x04, 0x00, 0x0C, 0x00, 0x00, 0x00, 
    0x4D, 0x00, 0x00, 0x00, 0x00, 0x00, 0x00, 0x4D
};
const unsigned int model_len = 14288;

#endif // _CONTENT_DRIVE_MYDRIVE_2025_250103_WAKE_WORD_MODEL_H
