#ifndef WAKE_WORD_MODEL_H
#define WAKE_WORD_MODEL_H

#include <stdint.h>

const unsigned char model_tflite[] = {
    0x1C, 0x00, 0x00, 0x00, 0x54, 0x46, 0x4C, 0x33, 0x14, 0x00, 0x20, 0x00, 
    0x1C, 0x00, 0x18, 0x00, 0x14, 0x00, 0x10, 0x00, 0x0C, 0x00, 0x00, 0x00, 
    0x08, 0x00, 0x04, 0x00, 0x14, 0x00, 0x00, 0x00, 0x1C, 0x00, 0x00, 0x00, 
    0x8C, 0x00, 0x00, 0x00, 0xE4, 0x00, 0x00, 0x00, 0xB0, 0x15, 0x00, 0x00, 
    0xC0, 0x15, 0x00, 0x00, 0x88, 0x27, 0x00, 0x00, 0x03, 0x00, 0x00, 0x00, 
    0x01, 0x00, 0x00, 0x00, 0x04, 0x00, 0x00, 0x00, 0x9E, 0xE7, 0xFF, 0xFF, 
    0x0C, 0x00, 0x00, 0x00, 0x1C, 0x00, 0x00, 0x00, 0x3C, 0x00, 0x00, 0x00, 
    0x0F, 0x00, 0x00, 0x00, 0x73, 0x65, 0x72, 0x76, 0x69, 0x6E, 0x67, 0x5F, 
    0x64, 0x65, 0x66, 0x61, 0x75, 0x6C, 0x74, 0x00, 0x01, 0x00, 0x00, 0x00, 
    0x04, 0x00, 0x00, 0x00, 0x90, 0xFF, 0xFF, 0xFF, 0x1C, 0x00, 0x00, 0x00, 
    0x04, 0x00, 0x00, 0x00, 0x08, 0x00, 0x00, 0x00, 0x6F, 0x75, 0x74, 0x70, 
    0x75, 0x74, 0x5F, 0x30, 0x00, 0x00, 0x00, 0x00, 0x01, 0x00, 0x00, 0x00, 
    0x04, 0x00, 0x00, 0x00, 0xA6, 0xE7, 0xFF, 0xFF, 0x04, 0x00, 0x00, 0x00, 
    0x0C, 0x00, 0x00, 0x00, 0x6B, 0x65, 0x72, 0x61, 0x73, 0x5F, 0x74, 0x65, 
    0x6E, 0x73, 0x6F, 0x72, 0x00, 0x00, 0x00, 0x00, 0x02, 0x00, 0x00, 0x00, 
    0x34, 0x00, 0x00, 0x00, 0x04, 0x00, 0x00, 0x00, 0xDC, 0xFF, 0xFF, 0xFF, 
    0x1F, 0x00, 0x00, 0x00, 0x04, 0x00, 0x00, 0x00, 0x13, 0x00, 0x00, 0x00, 
    0x43, 0x4F, 0x4E, 0x56, 0x45, 0x52, 0x53, 0x49, 0x4F, 0x4E, 0x5F, 0x4D, 
    0x45, 0x54, 0x41, 0x44, 0x41, 0x54, 0x41, 0x00, 0x08, 0x00, 0x0C, 0x00, 
    0x08, 0x00, 0x04, 0x00, 0x08, 0x00, 0x00, 0x00, 0x1E, 0x00, 0x00, 0x00, 
    0x04, 0x00, 0x00, 0x00, 0x13, 0x00, 0x00, 0x00, 0x6D, 0x69, 0x6E, 0x5F, 
    0x72, 0x75, 0x6E, 0x74, 0x69, 0x6D, 0x65, 0x5F, 0x76, 0x65, 0x72, 0x73, 
    0x69, 0x6F, 0x6E, 0x00, 0x20, 0x00, 0x00, 0x00, 0xC8, 0x14, 0x00, 0x00, 
    0xC0, 0x14, 0x00, 0x00, 0xA8, 0x14, 0x00, 0x00, 0x94, 0x14, 0x00, 0x00, 
    0x80, 0x14, 0x00, 0x00, 0x6C, 0x14, 0x00, 0x00, 0x64, 0x14, 0x00, 0x00, 
    0x4C, 0x14, 0x00, 0x00, 0xBC, 0x13, 0x00, 0x00, 0xAC, 0x12, 0x00, 0x00, 
    0x3C, 0x12, 0x00, 0x00, 0x2C, 0x0C, 0x00, 0x00, 0x9C, 0x0B, 0x00, 0x00, 
    0x4C, 0x0B, 0x00, 0x00, 0x1C, 0x0B, 0x00, 0x00, 0x0C, 0x05, 0x00, 0x00, 
    0xFC, 0x00, 0x00, 0x00, 0xF4, 0x00, 0x00, 0x00, 0xEC, 0x00, 0x00, 0x00, 
    0xE4, 0x00, 0x00, 0x00, 0xDC, 0x00, 0x00, 0x00, 0xD4, 0x00, 0x00, 0x00, 
    0xCC, 0x00, 0x00, 0x00, 0xC4, 0x00, 0x00, 0x00, 0xBC, 0x00, 0x00, 0x00, 
    0xB4, 0x00, 0x00, 0x00, 0xAC, 0x00, 0x00, 0x00, 0xA4, 0x00, 0x00, 0x00, 
    0x9C, 0x00, 0x00, 0x00, 0x94, 0x00, 0x00, 0x00, 0x74, 0x00, 0x00, 0x00, 
    0x04, 0x00, 0x00, 0x00, 0xA2, 0xE8, 0xFF, 0xFF, 0x04, 0x00, 0x00, 0x00, 
    0x60, 0x00, 0x00, 0x00, 0x0C, 0x00, 0x00, 0x00, 0x08, 0x00, 0x0E, 0x00, 
    0x08, 0x00, 0x04, 0x00, 0x08, 0x00, 0x00, 0x00, 0x10, 0x00, 0x00, 0x00, 
    0x28, 0x00, 0x00, 0x00, 0x00, 0x00, 0x06, 0x00, 0x08, 0x00, 0x04, 0x00, 
    0x06, 0x00, 0x00, 0x00, 0x04, 0x00, 0x00, 0x00, 0x01, 0x00, 0x00, 0x00, 
    0xEA, 0x03, 0x00, 0x00, 0x0C, 0x00, 0x18, 0x00, 0x14, 0x00, 0x10, 0x00, 
    0x0C, 0x00, 0x04, 0x00, 0x0C, 0x00, 0x00, 0x00, 0x81, 0x13, 0x92, 0x6F, 
    0xFF, 0x33, 0xC5, 0x52, 0x02, 0x00, 0x00, 0x00, 0x02, 0x00, 0x00, 0x00, 
    0x04, 0x00, 0x00, 0x00, 0x06, 0x00, 0x00, 0x00, 0x32, 0x2E, 0x31, 0x37, 
    0x2E, 0x31, 0x00, 0x00, 0x0E, 0xE9, 0xFF, 0xFF, 0x04, 0x00, 0x00, 0x00, 
    0x10, 0x00, 0x00, 0x00, 0x32, 0x2E, 0x31, 0x37, 0x2E, 0x30, 0x00, 0x00, 
    0x00, 0x00, 0x00, 0x00, 0x00, 0x00, 0x00, 0x00, 0x94, 0xDA, 0xFF, 0xFF, 
    0x98, 0xDA, 0xFF, 0xFF, 0x9C, 0xDA, 0xFF, 0xFF, 0xA0, 0xDA, 0xFF, 0xFF, 
    0xA4, 0xDA, 0xFF, 0xFF, 0xA8, 0xDA, 0xFF, 0xFF, 0xAC, 0xDA, 0xFF, 0xFF, 
    0xB0, 0xDA, 0xFF, 0xFF, 0xB4, 0xDA, 0xFF, 0xFF, 0xB8, 0xDA, 0xFF, 0xFF, 
    0xBC, 0xDA, 0xFF, 0xFF, 0xC0, 0xDA, 0xFF, 0xFF, 0xC4, 0xDA, 0xFF, 0xFF, 
    0x5E, 0xE9, 0xFF, 0xFF, 0x04, 0x00, 0x00, 0x00, 0x00, 0x04, 0x00, 0x00, 
    0x20, 0xA5, 0x4B, 0x0F, 0x44, 0x1D, 0x2B, 0xBF, 0xE1, 0x00, 0x81, 0x3C, 
    0x61, 0xE7, 0x59, 0x2C, 0x67, 0x43, 0x53, 0x5D, 0x4B, 0x4D, 0xFC, 0xD6, 
    0xDB, 0x72, 0x6E, 0x7C, 0x20, 0x0C, 0x9D, 0xFA, 0x6E, 0xBB, 0x28, 0x85, 
    0x46, 0x45, 0x6C, 0x4F, 0x17, 0x50, 0x28, 0xDB, 0x53, 0x75, 0xAF, 0xDD, 
    0xD1, 0x81, 0x46, 0xED, 0xD8, 0x3F, 0xFA, 0xBC, 0xE8, 0x58, 0x70, 0x35, 
    0x0F, 0x67, 0x04, 0x12, 0x51, 0xA9, 0xBA, 0x6C, 0x4B, 0x17, 0xBF, 0x36, 
    0x6A, 0xBE, 0x12, 0xB3, 0xC0, 0x6D, 0x81, 0x39, 0xEB, 0x0F, 0x53, 0x57, 
    0x1A, 0x2F, 0x17, 0xCF, 0x19, 0x7C, 0x04, 0x26, 0x7E, 0x06, 0x70, 0x9D, 
    0xC4, 0x06, 0x01, 0xB9, 0x5E, 0x6D, 0xB8, 0x20, 0x0F, 0x91, 0x89, 0x7A, 
    0x60, 0xDE, 0x6D, 0x62, 0x0C, 0x72, 0x5D, 0x7C, 0x1C, 0xB2, 0x48, 0x5B, 
    0x7F, 0x9D, 0x6A, 0xC8, 0x97, 0xB7, 0x51, 0xA1, 0x81, 0xF1, 0xCE, 0xC5, 
    0xB7, 0x34, 0x33, 0x6D, 0x31, 0x96, 0x28, 0xA7, 0x18, 0x3E, 0x2B, 0x49, 
    0x6E, 0x68, 0xDE, 0xE6, 0xA6, 0x22, 0x30, 0x1C, 0x4F, 0x34, 0x62, 0x27, 
    0x95, 0xC6, 0x79, 0x3A, 0x47, 0x6B, 0xF3, 0xC5, 0xD4, 0x1A, 0xDD, 0x19, 
    0xCC, 0xF3, 0x2C, 0x81, 0x17, 0x94, 0x06, 0x75, 0x37, 0x51, 0x7F, 0x9C, 
    0x7D, 0x20, 0x0E, 0x7D, 0xA4, 0x69, 0xD5, 0xB3, 0x61, 0x58, 0x23, 0x5F, 
    0x23, 0x70, 0x32, 0x81, 0x04, 0xD5, 0xD9, 0xE2, 0x53, 0x48, 0xCE, 0x75, 
    0x70, 0xB1, 0x45, 0x42, 0x47, 0x3D, 0x0C, 0xC5, 0x62, 0xAF, 0xA3, 0xA1, 
    0xD1, 0xB3, 0x24, 0x1B, 0xFF, 0x5F, 0xE9, 0x43, 0x31, 0x1A, 0xC6, 0x51, 
    0xFC, 0x14, 0xD7, 0xE2, 0xE4, 0x81, 0x0E, 0x0B, 0x31, 0x19, 0x10, 0x28, 
    0xDD, 0x48, 0x32, 0xC0, 0x18, 0x1A, 0xD1, 0xD8, 0x4D, 0x3C, 0x1D, 0xD3, 
    0xD5, 0x37, 0xD8, 0x24, 0x7E, 0x94, 0x10, 0x75, 0x6B, 0x5E, 0xC8, 0x5B, 
    0xAC, 0xE0, 0x1C, 0x69, 0xE6, 0x7F, 0xDD, 0x33, 0xA8, 0x60, 0xB0, 0x16, 
    0x2D, 0x12, 0xC3, 0x13, 0x3B, 0x95, 0x21, 0xDE, 0xB7, 0x44, 0xF5, 0xB2, 
    0xFD, 0x41, 0x77, 0x39, 0x7F, 0x4A, 0x57, 0x02, 0x5E, 0x28, 0x43, 0xBB, 
    0x5C, 0x63, 0xC1, 0x63, 0xED, 0x1B, 0x41, 0x17, 0xDF, 0x92, 0xD1, 0xDF, 
    0x29, 0xE7, 0x78, 0xFB, 0x2D, 0xA6, 0x92, 0xC6, 0x43, 0x6F, 0xD6, 0x39, 
    0x29, 0x4E, 0x5D, 0x02, 0xE7, 0x81, 0x97, 0x15, 0x0E, 0x3A, 0x73, 0x2D, 
    0x27, 0xEC, 0x3D, 0x35, 0xC5, 0x32, 0x09, 0x05, 0xDE, 0x24, 0x10, 0x2D, 
    0xD3, 0x5A, 0xE8, 0xB6, 0x89, 0x33, 0x69, 0xF7, 0x33, 0x81, 0xD4, 0x96, 
    0xBA, 0xD2, 0x6D, 0x8E, 0x2E, 0xBD, 0x10, 0x76, 0x3A, 0x46, 0x6E, 0xA8, 
    0x73, 0x1D, 0xD9, 0xC9, 0x4D, 0xFC, 0x41, 0xBA, 0x36, 0xB4, 0xA6, 0x6E, 
    0x1A, 0x9E, 0xAE, 0x70, 0xD8, 0x7F, 0x92, 0x93, 0x2E, 0xE8, 0x3D, 0x7E, 
    0xA6, 0x6C, 0x02, 0x0F, 0x68, 0x08, 0x1F, 0x03, 0x29, 0x9C, 0xA3, 0x0E, 
    0x39, 0x03, 0xAB, 0x66, 0x89, 0x0B, 0x49, 0xF2, 0x83, 0x2E, 0x8F, 0xE3, 
    0xB5, 0x62, 0x25, 0x40, 0x36, 0x50, 0x00, 0x5C, 0xB1, 0x05, 0x3D, 0x9D, 
    0x36, 0x01, 0x23, 0xEC, 0x76, 0x20, 0x81, 0x64, 0x4C, 0x5F, 0xB7, 0xDB, 
    0x31, 0xA5, 0x53, 0xD7, 0x86, 0x41, 0x1C, 0xF5, 0xD1, 0xC7, 0xC9, 0x17, 
    0x3F, 0xEE, 0xE2, 0x77, 0x7A, 0x33, 0xD3, 0x06, 0x4C, 0x81, 0xD5, 0xAB, 
    0x85, 0x3F, 0xF8, 0x9E, 0xE7, 0xBF, 0xFB, 0x05, 0xCF, 0xFF, 0xD6, 0x51, 
    0x2B, 0xBC, 0xE5, 0x3E, 0x21, 0x6A, 0x97, 0x8E, 0x2B, 0xCE, 0xEC, 0xCF, 
    0x07, 0xCB, 0x79, 0x5A, 0x4B, 0x56, 0x86, 0x7A, 0x40, 0x91, 0x01, 0xDB, 
    0x49, 0x15, 0x9E, 0x6F, 0x5C, 0x95, 0x7F, 0x39, 0xE4, 0xA7, 0xC4, 0x2A, 
    0x25, 0xFC, 0xF6, 0x04, 0xBA, 0xEC, 0x04, 0x76, 0xD5, 0xC5, 0xC1, 0x02, 
    0xF1, 0x9B, 0xBB, 0x10, 0x13, 0x23, 0x7F, 0xFB, 0x4C, 0x06, 0x2A, 0xA3, 
    0x74, 0xBA, 0x72, 0x75, 0x17, 0xAA, 0xBC, 0x8A, 0x5C, 0xB8, 0x2B, 0x7F, 
    0x7D, 0x0B, 0x0E, 0x4C, 0x44, 0x10, 0x09, 0x39, 0x75, 0xB3, 0x62, 0xFB, 
    0xA2, 0x4A, 0x67, 0x9E, 0xBA, 0xD8, 0x05, 0xAF, 0xF9, 0x44, 0xC8, 0x19, 
    0x0D, 0xF5, 0xB4, 0x01, 0x38, 0x34, 0x1A, 0xBE, 0xA5, 0x38, 0xFE, 0xCD, 
    0x15, 0x81, 0x82, 0xF0, 0xA0, 0xE4, 0xA4, 0x35, 0xF0, 0x0B, 0xDC, 0xA8, 
    0xB7, 0xE3, 0xA8, 0xE0, 0xD5, 0x09, 0xEC, 0x3F, 0x4F, 0x18, 0xED, 0x74, 
    0x25, 0x46, 0x75, 0x81, 0x75, 0x39, 0x07, 0x5E, 0x5F, 0x4E, 0x68, 0xBE, 
    0x97, 0x39, 0xB7, 0x2E, 0x21, 0x14, 0xA2, 0x6B, 0xF6, 0x06, 0x37, 0x9E, 
    0x79, 0xEF, 0xD7, 0x17, 0x0E, 0xF6, 0x66, 0xBB, 0x36, 0xC7, 0x85, 0x60, 
    0xE7, 0x70, 0xA2, 0xAE, 0xFF, 0x42, 0x30, 0xB1, 0xEF, 0xE2, 0xAA, 0x5E, 
    0xC9, 0x7F, 0x3C, 0x6E, 0x4C, 0x77, 0xC1, 0x17, 0x69, 0x4A, 0x6B, 0x47, 
    0x40, 0x12, 0xD9, 0x78, 0x40, 0x3A, 0xC0, 0x8D, 0x65, 0xEB, 0x64, 0x9A, 
    0xD5, 0x5C, 0x5D, 0x6B, 0xBB, 0x4B, 0x32, 0x27, 0xBE, 0x19, 0x5C, 0xA3, 
    0x03, 0x7F, 0x10, 0x19, 0xF8, 0x25, 0x30, 0x68, 0x81, 0x89, 0x63, 0x8E, 
    0xA5, 0x6D, 0x9D, 0x1D, 0x9C, 0xFF, 0x19, 0xEF, 0xFD, 0x9E, 0xFA, 0xC7, 
    0x5D, 0x6A, 0x65, 0xD4, 0x1E, 0x1E, 0xA5, 0xF1, 0x2B, 0xBC, 0xF9, 0xE1, 
    0x3E, 0x6A, 0x35, 0xA8, 0xC9, 0x02, 0x1C, 0x6B, 0x28, 0xE6, 0x7D, 0x7F, 
    0x6E, 0x19, 0x3E, 0x2A, 0xC1, 0xD8, 0x48, 0x12, 0xC9, 0xE5, 0x04, 0x11, 
    0xCA, 0x6A, 0x14, 0x1F, 0x09, 0xF1, 0x29, 0x13, 0x03, 0xF1, 0xFF, 0x38, 
    0x76, 0x0C, 0x8F, 0x1B, 0x04, 0x2E, 0x22, 0x49, 0x28, 0x4B, 0xF2, 0x09, 
    0x36, 0xF2, 0x8F, 0x53, 0xC1, 0xAA, 0x8E, 0xA8, 0x7A, 0xF1, 0x46, 0x9C, 
    0x02, 0x97, 0x0A, 0x7F, 0x63, 0x3E, 0xE1, 0x31, 0x3A, 0xAF, 0xCB, 0x3E, 
    0xEB, 0x00, 0x5D, 0x25, 0x54, 0x2A, 0x02, 0x2C, 0xF0, 0x19, 0x7F, 0x66, 
    0xBB, 0x4A, 0x1B, 0xDD, 0x39, 0xA2, 0xE0, 0x12, 0x2A, 0xDE, 0x47, 0xB4, 
    0xDC, 0x0D, 0x04, 0xF2, 0x34, 0x03, 0x86, 0x33, 0xD9, 0xDD, 0x41, 0x83, 
    0x52, 0xB6, 0x04, 0x81, 0xAB, 0x53, 0xA3, 0xAB, 0xEA, 0x14, 0xF9, 0xDC, 
    0x4A, 0xF6, 0x6D, 0x2F, 0x0B, 0x02, 0x87, 0x4B, 0xB7, 0x60, 0x33, 0x73, 
    0x7F, 0x87, 0x7A, 0x30, 0x7D, 0xDE, 0xC7, 0x31, 0x62, 0x59, 0xBF, 0x98, 
    0x4D, 0x9E, 0x4E, 0xF1, 0x6B, 0x64, 0x5C, 0xBC, 0x11, 0x82, 0xF6, 0xF3, 
    0x4C, 0x54, 0xE7, 0x00, 0x77, 0x57, 0x3B, 0x92, 0x60, 0x52, 0x39, 0xC7, 
    0x24, 0x46, 0x28, 0xDB, 0xC1, 0x7D, 0x0D, 0x3D, 0x61, 0x47, 0xAF, 0x06, 
    0x4C, 0x91, 0x30, 0xB4, 0x59, 0x04, 0xFA, 0x81, 0xA6, 0xE0, 0x63, 0x65, 
    0x2E, 0xFA, 0x10, 0x35, 0xE2, 0xC1, 0xDA, 0x6E, 0xE9, 0xAA, 0xEE, 0x44, 
    0x54, 0xC6, 0xDE, 0x3D, 0xDA, 0xE3, 0x1B, 0xCC, 0x92, 0x81, 0xB5, 0x16, 
    0x22, 0x2F, 0x0A, 0x78, 0xDF, 0x33, 0x35, 0xEF, 0x69, 0xD1, 0x17, 0xC2, 
    0x1A, 0xCE, 0xCA, 0x7F, 0xC3, 0x69, 0xD9, 0x1E, 0xD5, 0x3F, 0x20, 0xF3, 
    0xBF, 0x27, 0x38, 0x3F, 0xEE, 0x00, 0xBE, 0xBB, 0x40, 0xE0, 0x56, 0x10, 
    0x26, 0xCB, 0xDF, 0x47, 0x1F, 0x38, 0x55, 0xE2, 0xC7, 0xE4, 0x00, 0x05, 
    0x0A, 0x09, 0x45, 0x21, 0xB0, 0xB8, 0xC9, 0xCF, 0xE7, 0x0C, 0x17, 0xAF, 
    0x9E, 0x6A, 0x22, 0xF9, 0xBD, 0xFB, 0xEC, 0x92, 0x7F, 0xD1, 0xDB, 0xC3, 
    0xFB, 0x0D, 0x51, 0x21, 0x6A, 0xED, 0xFF, 0xFF, 0x04, 0x00, 0x00, 0x00, 
    0x00, 0x06, 0x00, 0x00, 0xAA, 0x54, 0xB5, 0x5E, 0x09, 0x08, 0xE3, 0xC4, 
    0xEA, 0x5C, 0x08, 0xD0, 0x6A, 0xD5, 0xE8, 0x72, 0x3B, 0x6F, 0x9B, 0x77, 
    0x46, 0x39, 0x6F, 0x6A, 0xB4, 0x81, 0xB8, 0x71, 0xCE, 0x6B, 0x62, 0x49, 
    0xEB, 0x08, 0x39, 0x3F, 0x2A, 0x46, 0xD2, 0xE7, 0xA5, 0x3C, 0xDE, 0xB6, 
    0x4D, 0x90, 0x17, 0x59, 0xD7, 0xF5, 0x36, 0xA9, 0x32, 0x70, 0xC7, 0x8A, 
    0x52, 0xFE, 0x48, 0xEE, 0xAE, 0x96, 0x79, 0x15, 0xC2, 0x55, 0x08, 0x6B, 
    0x39, 0x4D, 0x4D, 0xE7, 0x30, 0x0A, 0xF9, 0x2D, 0x6A, 0x5B, 0x95, 0x12, 
    0xD5, 0xA4, 0x81, 0x3E, 0x37, 0x05, 0x72, 0x1E, 0xCC, 0x37, 0x2C, 0x02, 
    0x92, 0x09, 0x11, 0x41, 0x94, 0x46, 0x0E, 0xB2, 0x5C, 0x6D, 0xA4, 0xA6, 
    0x20, 0xCF, 0x70, 0x1D, 0xC1, 0xCF, 0x6E, 0x9D, 0x89, 0xC2, 0x2E, 0x38, 
    0x20, 0xC1, 0xD4, 0x9B, 0x68, 0x56, 0x47, 0xE9, 0x87, 0xB7, 0x99, 0x2E, 
    0xA8, 0xD9, 0x8F, 0x11, 0xD9, 0x1D, 0x81, 0x5B, 0x57, 0x15, 0x58, 0xF4, 
    0x67, 0xCB, 0x1C, 0x82, 0x01, 0x4C, 0x08, 0x7E, 0x2C, 0xE1, 0x18, 0x2D, 
    0xD4, 0x6E, 0x1A, 0xAE, 0xAF, 0x42, 0x06, 0xB1, 0x96, 0x31, 0x11, 0x75, 
    0xCB, 0xB4, 0xDE, 0x7D, 0xC1, 0xBB, 0xEF, 0x46, 0xB1, 0xA0, 0x5C, 0x29, 
    0xB7, 0x41, 0x84, 0x5E, 0xAF, 0xC2, 0xB1, 0x35, 0xBB, 0xE3, 0x59, 0x81, 
    0x1B, 0x77, 0x6E, 0xD8, 0x1C, 0x8B, 0x29, 0x3F, 0xA2, 0xFF, 0xB3, 0xFB, 
    0xB1, 0x19, 0x2B, 0x01, 0x68, 0x86, 0x84, 0xA8, 0xC4, 0x52, 0x5E, 0x68, 
    0x81, 0x32, 0x1C, 0xCD, 0x9D, 0x69, 0x84, 0xD0, 0xD9, 0x01, 0x44, 0x58, 
    0x9C, 0x0B, 0x5E, 0xF7, 0x20, 0xFE, 0x40, 0xE4, 0x94, 0x68, 0x50, 0x88, 
    0xF0, 0x52, 0xD1, 0x63, 0x7B, 0x5E, 0xCC, 0x26, 0x85, 0x8E, 0xBC, 0x25, 
    0x03, 0xEE, 0x0F, 0x81, 0xC9, 0x61, 0x37, 0x02, 0xF9, 0x12, 0x11, 0xB0, 
    0x5D, 0x45, 0xA4, 0x56, 0xC6, 0x14, 0xBF, 0xDE, 0x47, 0x1F, 0xF0, 0xD0, 
    0x1E, 0x35, 0xCA, 0xE9, 0xBA, 0xB7, 0x13, 0x58, 0xFE, 0x8F, 0x1A, 0x74, 
    0xAF, 0x7B, 0x43, 0x57, 0xD9, 0xE3, 0x3D, 0xE2, 0x3D, 0xB5, 0x1F, 0xC5, 
    0x4D, 0x61, 0x57, 0xB6, 0x74, 0x7F, 0x91, 0x14, 0xBD, 0xF4, 0x27, 0x1E, 
    0xB4, 0x32, 0xCC, 0x57, 0xF2, 0xE4, 0x7E, 0x82, 0x00, 0x53, 0xBC, 0xAF, 
    0x22, 0xAA, 0x73, 0x09, 0xE2, 0xC0, 0xB6, 0x56, 0x37, 0xCE, 0x33, 0xD0, 
    0x60, 0x7C, 0xE9, 0xD8, 0x4F, 0xBC, 0xF4, 0x7F, 0x18, 0x68, 0xCA, 0x63, 
    0xD3, 0x05, 0xBD, 0xE0, 0xD2, 0xBC, 0x55, 0xF0, 0x8E, 0xC0, 0xA5, 0x6F, 
    0x4F, 0x11, 0xD5, 0x4C, 0x2A, 0x21, 0x7A, 0x91, 0x31, 0xDA, 0xE3, 0xEC, 
    0xFE, 0x13, 0x3E, 0x59, 0x6A, 0xC3, 0xD0, 0x97, 0x1D, 0x3C, 0xB1, 0xB2, 
    0xFE, 0x74, 0x85, 0xB0, 0xF7, 0x39, 0xCF, 0x76, 0x81, 0x13, 0x9C, 0xF6, 
    0x0C, 0xEA, 0x47, 0x0B, 0xB1, 0x9B, 0x3C, 0xEA, 0x65, 0x4C, 0x69, 0x04, 
    0xDE, 0x0F, 0xB0, 0xFB, 0xC5, 0x0D, 0x50, 0xE1, 0x65, 0xA8, 0x35, 0xF9, 
    0xE4, 0xAE, 0x1A, 0x25, 0xD8, 0x96, 0x55, 0xB6, 0x33, 0xFE, 0x4B, 0xC3, 
    0xA0, 0xA3, 0xD2, 0xE7, 0x5F, 0xE4, 0x25, 0xB3, 0x09, 0xBF, 0x7F, 0x50, 
    0xED, 0xF4, 0xEC, 0xC3, 0xBA, 0xFB, 0xFD, 0xA7, 0x74, 0x1A, 0xDC, 0xAA, 
    0x0F, 0x49, 0x67, 0xC5, 0x33, 0xD2, 0x52, 0x4E, 0xC2, 0x00, 0xF7, 0xEE, 
    0x2D, 0xFA, 0xF9, 0xB8, 0x18, 0x3C, 0xEA, 0xCF, 0x11, 0x66, 0x3E, 0x08, 
    0x74, 0x11, 0x26, 0xE6, 0x50, 0xE4, 0xEE, 0x6C, 0xD0, 0xB5, 0x32, 0xE9, 
    0x23, 0xD5, 0x54, 0x3B, 0xD7, 0x57, 0x9F, 0xC1, 0x18, 0xFE, 0xD7, 0xE8, 
    0xD2, 0x54, 0x07, 0x00, 0x11, 0x62, 0x8A, 0x81, 0x08, 0x14, 0xD7, 0xAF, 
    0x40, 0xD5, 0x6D, 0x08, 0xE6, 0xD9, 0xA1, 0x5F, 0xE2, 0xF7, 0xFD, 0x05, 
    0xFB, 0x9B, 0x8E, 0x07, 0xD6, 0xCE, 0x31, 0x54, 0x0C, 0x9B, 0x38, 0x51, 
    0x30, 0x9A, 0x6D, 0x53, 0x23, 0x01, 0x4A, 0x05, 0x68, 0xCD, 0xE7, 0xFD, 
    0x32, 0x3A, 0x41, 0x9E, 0xA4, 0xE9, 0x95, 0x4A, 0xCB, 0x8D, 0x0D, 0xA6, 
    0xE6, 0xEA, 0xC1, 0xCD, 0xAF, 0x4A, 0xE0, 0xEF, 0xAD, 0x65, 0xAF, 0x81, 
    0xE0, 0xA2, 0x1F, 0xC1, 0xEC, 0xD0, 0x29, 0x16, 0x36, 0x3F, 0x84, 0xCB, 
    0xD2, 0x72, 0xB9, 0x39, 0x85, 0xA6, 0x4C, 0xC7, 0x22, 0x21, 0x5D, 0x65, 
    0x4D, 0x0C, 0x45, 0xEF, 0xC2, 0x53, 0x02, 0xE8, 0x32, 0x40, 0x6B, 0x0C, 
    0x6B, 0x63, 0xBD, 0xAD, 0x1D, 0xD2, 0x66, 0x90, 0x6E, 0x70, 0xE0, 0xE9, 
    0x81, 0xFD, 0xC4, 0x5A, 0x51, 0xDD, 0xBE, 0x15, 0x06, 0x5C, 0xA2, 0x31, 
    0x5B, 0xEB, 0x08, 0xF4, 0x16, 0x2A, 0x07, 0x33, 0xEE, 0x61, 0x69, 0xE1, 
    0xC9, 0x2C, 0x70, 0x48, 0x43, 0x35, 0x81, 0x92, 0x1F, 0xC7, 0x5C, 0x5C, 
    0xE8, 0x9C, 0x1C, 0x82, 0xD2, 0xC1, 0x1A, 0x0C, 0x7E, 0x96, 0x70, 0x3E, 
    0x84, 0x7A, 0xC6, 0x64, 0xBE, 0x36, 0xB5, 0xB5, 0x4E, 0x41, 0xCE, 0x0E, 
    0x33, 0xD6, 0xEA, 0xA9, 0xC0, 0x14, 0xF1, 0xDF, 0xC4, 0xE4, 0x57, 0x4D, 
    0x45, 0xBE, 0xD0, 0x11, 0xC6, 0x04, 0x28, 0x01, 0xF1, 0xCD, 0x44, 0xF2, 
    0x46, 0xBE, 0xDA, 0x20, 0xFF, 0xD9, 0xB3, 0xEE, 0xE7, 0xBB, 0x81, 0x3D, 
    0x19, 0x42, 0xD3, 0xC8, 0xC4, 0x3B, 0xC1, 0x1F, 0xB7, 0x43, 0xE2, 0x34, 
    0xEA, 0x0F, 0x97, 0x23, 0x43, 0xFF, 0xF7, 0x49, 0x0C, 0xB8, 0x18, 0x50, 
    0x30, 0xA8, 0xA9, 0xE3, 0xDA, 0x90, 0xDC, 0xD5, 0xC8, 0xF1, 0x04, 0x49, 
    0xA9, 0x45, 0xCE, 0x1C, 0x88, 0x81, 0x38, 0xA3, 0xE9, 0x07, 0x28, 0xC4, 
    0x55, 0xD6, 0x8C, 0x0A, 0x58, 0x0B, 0x6C, 0xBF, 0x81, 0xCB, 0x39, 0x83, 
    0x25, 0x98, 0xCC, 0x1E, 0xD6, 0x73, 0x99, 0x62, 0x82, 0x51, 0x25, 0x26, 
    0xAE, 0x8A, 0x02, 0x19, 0x6F, 0x74, 0x25, 0xBA, 0x74, 0x9D, 0x42, 0x06, 
    0xD8, 0x7A, 0x18, 0x02, 0x33, 0xEA, 0xAB, 0xD4, 0xA6, 0xE2, 0xB3, 0x40, 
    0xF1, 0x6E, 0xD3, 0xED, 0x49, 0x9F, 0xF4, 0x81, 0x22, 0x9F, 0x8C, 0x3A, 
    0x0C, 0xFD, 0x50, 0x71, 0x66, 0x2F, 0x14, 0xAC, 0x6C, 0x91, 0xEC, 0x39, 
    0xC5, 0xAA, 0xAD, 0x53, 0x91, 0xD2, 0x49, 0x98, 0xCA, 0x72, 0xF2, 0xF8, 
    0x8E, 0xF9, 0x0C, 0xC1, 0xAB, 0x91, 0xE6, 0x01, 0xC6, 0x91, 0x98, 0xEA, 
    0xB5, 0xAB, 0xE8, 0xFC, 0x8C, 0x34, 0x04, 0x65, 0xC8, 0x7F, 0x92, 0x9F, 
    0x03, 0x74, 0x03, 0xF0, 0xF0, 0x37, 0x5F, 0xE5, 0xDD, 0xFC, 0xC1, 0xF0, 
    0xC5, 0x87, 0x16, 0x1D, 0xF3, 0x7A, 0x60, 0x2E, 0xE8, 0x6A, 0x50, 0xA2, 
    0x53, 0xB6, 0x52, 0xC9, 0x44, 0x5B, 0x23, 0xC1, 0x68, 0xB3, 0x62, 0x40, 
    0x4D, 0xE3, 0xEA, 0xE8, 0xAD, 0x7C, 0x68, 0xDA, 0xAC, 0xCF, 0x9A, 0x6B, 
    0x3B, 0xFC, 0xBC, 0x50, 0x56, 0x7F, 0x3B, 0xF4, 0xCD, 0x98, 0xD7, 0x47, 
    0xC1, 0xE6, 0xD8, 0xB6, 0x1C, 0x90, 0x47, 0x7E, 0xEC, 0xB3, 0xBD, 0x4F, 
    0x10, 0x0B, 0xB5, 0x84, 0xF8, 0x47, 0x91, 0x6D, 0xEF, 0x99, 0xDD, 0x30, 
    0x73, 0x68, 0x68, 0xF7, 0xBA, 0x8F, 0x23, 0xFD, 0xF8, 0xDF, 0x5A, 0x98, 
    0x40, 0xC4, 0x39, 0x8D, 0x86, 0xFE, 0x57, 0x5B, 0x63, 0xE4, 0x8E, 0x6A, 
    0xFB, 0x81, 0xB4, 0x6A, 0x5D, 0x4A, 0xDD, 0x4A, 0x70, 0xC8, 0x87, 0x11, 
    0x9B, 0xE5, 0x53, 0x68, 0x14, 0xE0, 0x1F, 0xB2, 0x84, 0xAA, 0x6B, 0xD3, 
    0x0A, 0x23, 0x9E, 0x6D, 0x35, 0x73, 0x52, 0xED, 0x16, 0xA2, 0x2D, 0xC0, 
    0x11, 0x1A, 0xF4, 0x0B, 0x32, 0x37, 0xCA, 0xF4, 0x18, 0xAF, 0x81, 0x5F, 
    0x0A, 0xF1, 0xC4, 0xAB, 0x4B, 0xCA, 0x57, 0x08, 0x29, 0x08, 0x71, 0x1A, 
    0xF5, 0xC6, 0x30, 0xC1, 0x62, 0x46, 0xE1, 0xCB, 0x72, 0xF8, 0x05, 0xEA, 
    0x1D, 0xEF, 0x3E, 0xBA, 0xFC, 0xAA, 0x7D, 0x49, 0xA1, 0xA4, 0x73, 0x1F, 
    0x25, 0xCE, 0x71, 0xCA, 0x15, 0x4D, 0xA2, 0x1A, 0x13, 0xE9, 0x77, 0x13, 
    0xA1, 0x59, 0xC5, 0x74, 0x9A, 0xB8, 0xDC, 0x94, 0x81, 0xD9, 0x05, 0x09, 
    0x4D, 0x4E, 0xA8, 0x2F, 0x81, 0x8C, 0x73, 0x77, 0x2B, 0x78, 0x3D, 0xAC, 
    0x40, 0x48, 0xA8, 0xEC, 0xF6, 0xFF, 0x4E, 0x5C, 0xD0, 0xC8, 0x8C, 0xB6, 
    0x0F, 0x9C, 0x9E, 0x07, 0xE7, 0xB8, 0xD9, 0xC2, 0x19, 0x5F, 0xA2, 0xD8, 
    0x42, 0xAE, 0x89, 0x14, 0x1C, 0x03, 0xA7, 0x89, 0xDF, 0x4D, 0xBD, 0x6C, 
    0x36, 0xC5, 0xCE, 0x86, 0xF8, 0x5F, 0x95, 0xA7, 0x6B, 0xF2, 0x81, 0x50, 
    0x18, 0xB5, 0xF4, 0x71, 0xE9, 0xDF, 0xA0, 0x62, 0x49, 0xAD, 0x9C, 0x5E, 
    0x90, 0x7F, 0x91, 0x43, 0xAB, 0x36, 0x94, 0x8B, 0x5B, 0xBE, 0x3F, 0x4D, 
    0xE7, 0xDD, 0x84, 0x9E, 0xA8, 0x64, 0x59, 0x53, 0xF4, 0x3E, 0xB3, 0x4E, 
    0xAD, 0xA9, 0xDF, 0x3C, 0xE8, 0x1B, 0xBD, 0xCC, 0x16, 0x2F, 0x07, 0x20, 
    0x69, 0xE6, 0x4D, 0x5A, 0xF1, 0x39, 0x94, 0x28, 0x0F, 0x5F, 0x8D, 0xF3, 
    0x2A, 0x36, 0xB9, 0x4E, 0xA1, 0xB9, 0xB1, 0xF7, 0x91, 0x81, 0x6F, 0x9B, 
    0x8E, 0x74, 0x62, 0xB5, 0x09, 0xD3, 0xAB, 0x40, 0x12, 0x55, 0x5E, 0x20, 
    0x57, 0x0F, 0xE3, 0xE6, 0x25, 0x67, 0x3F, 0xD0, 0x46, 0xEC, 0xB8, 0x0D, 
    0x42, 0xCA, 0xE5, 0xAF, 0x56, 0x7B, 0xAE, 0xBE, 0x1A, 0x26, 0xD6, 0x64, 
    0x43, 0x70, 0x8F, 0xAA, 0xEA, 0x38, 0x14, 0xFF, 0x77, 0x8C, 0x12, 0x9F, 
    0x91, 0x99, 0x89, 0x3C, 0xA1, 0x34, 0x49, 0x59, 0x05, 0xF0, 0xA1, 0xEC, 
    0xFA, 0xD6, 0x34, 0x7F, 0xF2, 0x20, 0x65, 0x73, 0x50, 0xB7, 0x36, 0xBB, 
    0x01, 0xB3, 0xA7, 0x88, 0xD4, 0xC4, 0xF3, 0x17, 0xB1, 0x64, 0x26, 0xD9, 
    0x17, 0x33, 0xB1, 0xB7, 0x72, 0x7C, 0xBE, 0xE6, 0xD6, 0x8A, 0x97, 0x71, 
    0x6C, 0x3E, 0xE1, 0x32, 0x6D, 0x91, 0x71, 0x75, 0x34, 0x26, 0x13, 0xFD, 
    0x66, 0x63, 0x75, 0xB4, 0x11, 0x61, 0x23, 0xD3, 0xCF, 0x0D, 0x81, 0x13, 
    0x6A, 0x18, 0xB5, 0x34, 0x1E, 0x00, 0xF0, 0x1B, 0x92, 0xDB, 0xE4, 0xA8, 
    0x2A, 0xF0, 0xF0, 0x56, 0xE6, 0xF1, 0x81, 0x06, 0x53, 0x92, 0xDB, 0xFB, 
    0xFF, 0x59, 0x94, 0x8A, 0x9E, 0x79, 0x25, 0x9F, 0x09, 0x83, 0x17, 0x32, 
    0xA6, 0xA8, 0x33, 0x26, 0x2F, 0xBF, 0x21, 0x0E, 0xAE, 0xD2, 0xDA, 0x68, 
    0x27, 0x7A, 0x4A, 0xFE, 0xFF, 0xE2, 0xEA, 0x81, 0x37, 0x49, 0xBF, 0xE7, 
    0xDC, 0xA7, 0x41, 0xCC, 0xDD, 0x70, 0xCA, 0xEA, 0xAB, 0x6A, 0x6F, 0xDE, 
    0xC6, 0xFB, 0x62, 0xCD, 0xA6, 0x8C, 0x58, 0x19, 0x23, 0x2A, 0xFF, 0x4C, 
    0x69, 0x01, 0x4E, 0x82, 0x8C, 0x73, 0x02, 0xF7, 0x56, 0x72, 0xDC, 0x82, 
    0x75, 0x65, 0xE9, 0xBD, 0xC2, 0x81, 0x31, 0xE3, 0xFD, 0xC1, 0x3F, 0xD3, 
    0x02, 0x4D, 0x90, 0x51, 0x12, 0x77, 0xFA, 0x6F, 0x1E, 0x43, 0xCB, 0xB5, 
    0xA2, 0xF2, 0x7F, 0x3D, 0xC5, 0xE6, 0x33, 0x00, 0x72, 0xB3, 0xF0, 0xA8, 
    0x45, 0x84, 0x0A, 0x60, 0x25, 0x84, 0xF6, 0xDF, 0x4D, 0xD1, 0x6D, 0x5D, 
    0x83, 0x41, 0x14, 0xBF, 0x81, 0x65, 0xB4, 0xA4, 0xA9, 0x97, 0xD8, 0xDE, 
    0x1A, 0xC5, 0xA0, 0x09, 0x07, 0x8C, 0xCA, 0x99, 0x81, 0x9F, 0xE4, 0x01, 
    0xBA, 0x16, 0xA0, 0x9C, 0x0D, 0x60, 0x68, 0x44, 0x69, 0x02, 0x1B, 0x34, 
    0x97, 0xEA, 0x00, 0x4F, 0x3F, 0xF6, 0x8D, 0x0D, 0x5B, 0x60, 0x90, 0xA1, 
    0x50, 0x6F, 0xB9, 0xCA, 0x76, 0xF3, 0xFF, 0xFF, 0x04, 0x00, 0x00, 0x00, 
    0x20, 0x00, 0x00, 0x00, 0xC6, 0xBE, 0xB1, 0xBD, 0xC8, 0x69, 0xEE, 0xBD, 
    0x24, 0x82, 0xDD, 0xBD, 0x5D, 0x72, 0x60, 0x3D, 0x1F, 0xAE, 0x92, 0xBD, 
    0x85, 0xD2, 0x9C, 0xBD, 0x89, 0xBD, 0xD5, 0xBD, 0xDC, 0x63, 0x06, 0x3E, 
    0xA2, 0xF3, 0xFF, 0xFF, 0x04, 0x00, 0x00, 0x00, 0x40, 0x00, 0x00, 0x00, 
    0x11, 0x82, 0xF6, 0x3D, 0xBB, 0x3C, 0xA3, 0xBD, 0x3F, 0x0E, 0x1C, 0xBD, 
    0x80, 0x95, 0xF8, 0xBD, 0xBE, 0x3F, 0xFE, 0xBD, 0x28, 0x0E, 0xF4, 0x3D, 
    0xDB, 0x47, 0x2F, 0x3E, 0x43, 0xBE, 0xE2, 0xBD, 0x97, 0x6E, 0x94, 0x3D, 
    0x6C, 0xFC, 0xA2, 0xBD, 0xE0, 0xE3, 0x1F, 0x3D, 0xB0, 0x9D, 0xDE, 0x3D, 
    0xDD, 0x0C, 0x82, 0xBC, 0x98, 0x48, 0xAA, 0x3D, 0x2A, 0x24, 0x47, 0x3D, 
    0x60, 0x8F, 0xAB, 0xBD, 0xEE, 0xF3, 0xFF, 0xFF, 0x04, 0x00, 0x00, 0x00, 
    0x80, 0x00, 0x00, 0x00, 0x65, 0xCD, 0xC2, 0xBD, 0x37, 0xC7, 0x29, 0xBE, 
    0x98, 0x8A, 0x0E, 0x3D, 0xDA, 0xBE, 0xB5, 0xBD, 0x9E, 0x61, 0x6B, 0xBD, 
    0xD9, 0x87, 0x03, 0xBE, 0xFB, 0x39, 0xE3, 0xBD, 0x96, 0x1A, 0x75, 0xBD, 
    0xFF, 0x73, 0x2B, 0xBE, 0x74, 0xA2, 0x75, 0x3E, 0x45, 0xBB, 0x9B, 0xBD, 
    0x7C, 0xAB, 0xEA, 0xBD, 0xE2, 0x83, 0xFB, 0xBD, 0xAE, 0x7B, 0xDC, 0xBC, 
    0xBC, 0x76, 0x5E, 0xBE, 0xC4, 0x42, 0x59, 0xBD, 0x4B, 0xD1, 0x93, 0x3D, 
    0x8A, 0xD1, 0xEA, 0xBD, 0x41, 0x81, 0xC5, 0x3D, 0x14, 0x80, 0xE3, 0x3D, 
    0x26, 0x28, 0x9E, 0xBD, 0xCF, 0x60, 0xB9, 0x3D, 0xBD, 0xB4, 0xCC, 0xBD, 
    0x76, 0x03, 0x37, 0x3D, 0xB3, 0x67, 0xB1, 0xBD, 0xDF, 0x1B, 0x04, 0x3E, 
    0x0E, 0x75, 0xC0, 0xBD, 0x55, 0xF6, 0xC5, 0x3D, 0x4D, 0x18, 0x2D, 0x3E, 
    0xDD, 0xEA, 0xB1, 0xBC, 0x05, 0x0C, 0xAD, 0x3D, 0xE1, 0x27, 0xFE, 0xBC, 
    0x7A, 0xF4, 0xFF, 0xFF, 0x04, 0x00, 0x00, 0x00, 0x00, 0x06, 0x00, 0x00, 
    0xA1, 0xFA, 0xEE, 0xBD, 0x02, 0x79, 0x58, 0x3C, 0x5C, 0xB2, 0x0F, 0x3D, 
    0x6E, 0xAB, 0x35, 0xBE, 0xF3, 0xB9, 0x8C, 0xBE, 0x76, 0xC1, 0x70, 0x3E, 
    0xDA, 0xC0, 0x0C, 0xBE, 0x98, 0x21, 0x44, 0x3E, 0x3E, 0x4E, 0x9B, 0x3D, 
    0xB2, 0x69, 0x80, 0xBE, 0x9A, 0x52, 0xC1, 0xBD, 0xC4, 0x2B, 0x1E, 0x3E, 
    0x67, 0x4C, 0x7A, 0x3E, 0xBF, 0x32, 0xE5, 0xBD, 0x8A, 0x2C, 0x4F, 0x3D, 
    0x9F, 0xC4, 0xEC, 0xBD, 0x55, 0xF1, 0x5D, 0xBE, 0x1D, 0x2F, 0x3A, 0x3E, 
    0xDC, 0x28, 0x2A, 0x3E, 0x05, 0xB9, 0x84, 0x3E, 0x3D, 0xE0, 0x80, 0xBE, 
    0xCE, 0x74, 0xB8, 0x3D, 0xDD, 0x79, 0x22, 0xBE, 0x02, 0x75, 0x80, 0x3E, 
    0x07, 0x3F, 0x21, 0x3E, 0xDE, 0x95, 0x27, 0x3E, 0x01, 0xAE, 0x02, 0xBE, 
    0x36, 0x86, 0xA5, 0xBC, 0xA9, 0xB2, 0x65, 0x3E, 0xF9, 0xE4, 0x88, 0x3E, 
    0xCC, 0xCD, 0x0D, 0x3E, 0x79, 0xD4, 0x1D, 0xBC, 0x2E, 0xA2, 0x69, 0xBD, 
    0x23, 0x9D, 0x87, 0x3E, 0xB2, 0xBF, 0x44, 0x3E, 0x6F, 0x70, 0x45, 0xBE, 
    0x45, 0xC0, 0x8B, 0x3D, 0x50, 0x47, 0x8D, 0x3D, 0xAC, 0x6A, 0x06, 0x3E, 
    0xF3, 0x11, 0x18, 0xBE, 0x16, 0x03, 0x39, 0x3E, 0xF9, 0x8D, 0x0D, 0xBE, 
    0x18, 0x3C, 0x88, 0x3E, 0xFC, 0x42, 0xB8, 0x3C, 0xC3, 0x4B, 0x05, 0x3E, 
    0x02, 0xB0, 0xF7, 0xBC, 0x2F, 0xBC, 0x84, 0x3E, 0x2F, 0x62, 0x61, 0xBE, 
    0xD1, 0xDF, 0xBB, 0xBC, 0x5A, 0xFF, 0x89, 0x3D, 0x6B, 0x1A, 0x59, 0x3D, 
    0x3B, 0x6C, 0x64, 0x3A, 0x1E, 0x9E, 0x16, 0xBD, 0xC9, 0x05, 0xB6, 0x3B, 
    0x07, 0xF7, 0x76, 0xBE, 0x75, 0x66, 0x42, 0xBE, 0x27, 0x80, 0x4E, 0xBD, 
    0x23, 0x41, 0x5D, 0xBE, 0x62, 0x72, 0x0A, 0xBE, 0x22, 0x74, 0x08, 0x3E, 
    0xB9, 0xE4, 0x59, 0x3E, 0x8A, 0x2B, 0x89, 0x3D, 0x0C, 0x4E, 0x67, 0x3E, 
    0x95, 0xCD, 0x6B, 0x3E, 0x8A, 0x71, 0x08, 0xBD, 0xF8, 0x1B, 0x58, 0x3E, 
    0x44, 0xE8, 0x68, 0x3E, 0xCC, 0xDE, 0x99, 0xBE, 0x4D, 0xFB, 0x2F, 0x3D, 
    0x96, 0x4B, 0x3A, 0x3C, 0x8D, 0x02, 0x11, 0xBE, 0x18, 0xFF, 0xB5, 0x3D, 
    0x50, 0x8D, 0x48, 0x3D, 0xF9, 0x0D, 0x6B, 0x3E, 0xD9, 0xC3, 0x1D, 0xBE, 
    0xFF, 0x3A, 0xA0, 0x3D, 0x54, 0x8F, 0x42, 0xBE, 0x6E, 0x6A, 0x3C, 0xBE, 
    0x53, 0xCC, 0x86, 0x3E, 0xF3, 0xDE, 0x94, 0xBE, 0xCA, 0x6B, 0xD2, 0xBD, 
    0x5E, 0xCB, 0x54, 0x3E, 0xA1, 0x0B, 0x7D, 0xBD, 0x4E, 0x7F, 0x90, 0x3E, 
    0x4B, 0x94, 0x85, 0xBE, 0xDD, 0x36, 0x3C, 0xBE, 0x18, 0xDF, 0x82, 0x3E, 
    0xFC, 0x80, 0x52, 0x3E, 0xEE, 0x9D, 0xE9, 0x3D, 0xD9, 0xFC, 0x73, 0x3D, 
    0xEA, 0x8D, 0xAC, 0x3D, 0x30, 0xD9, 0x42, 0xBE, 0x6C, 0x55, 0x17, 0x3E, 
    0xD6, 0x76, 0xD5, 0xBD, 0x0D, 0xED, 0x7E, 0x3E, 0xB5, 0x72, 0x42, 0x3E, 
    0xB3, 0x7B, 0x6F, 0xBE, 0x13, 0x9C, 0x95, 0xBE, 0x5C, 0x55, 0x54, 0x3E, 
    0xE9, 0xDD, 0xE9, 0xBD, 0x57, 0x77, 0x3A, 0x3E, 0xB4, 0x2D, 0x13, 0x3E, 
    0x94, 0x9C, 0xE9, 0x3D, 0x2F, 0x83, 0x93, 0x3D, 0x0D, 0x12, 0xEB, 0x3D, 
    0x48, 0x9B, 0x4A, 0x3E, 0x01, 0x91, 0x80, 0xBE, 0x4C, 0xAB, 0x69, 0xBE, 
    0x6A, 0xD1, 0x9E, 0xBD, 0x2D, 0x6F, 0x91, 0xBE, 0x54, 0xCF, 0x07, 0xBC, 
    0x98, 0xCC, 0x71, 0x3E, 0xBF, 0x31, 0xBB, 0xBD, 0xFD, 0xC0, 0x6C, 0x3D, 
    0x23, 0x7B, 0xCE, 0x3C, 0x08, 0xC8, 0xFF, 0x3A, 0x09, 0x6F, 0x8B, 0xBE, 
    0x3B, 0x0D, 0xBF, 0xBD, 0x19, 0x09, 0xE5, 0x3C, 0x6D, 0x3B, 0x24, 0xBE, 
    0xE3, 0xAB, 0x63, 0x3D, 0xDF, 0x90, 0x58, 0xBD, 0x15, 0xB2, 0x8F, 0xBD, 
    0x97, 0x46, 0xF9, 0x3D, 0xF0, 0x9C, 0x31, 0x3D, 0x83, 0xDF, 0x82, 0xBE, 
    0xCF, 0x1B, 0x64, 0xBE, 0x0A, 0xC0, 0x93, 0xBE, 0x23, 0xDA, 0x81, 0xBD, 
    0x76, 0xB3, 0x63, 0x3E, 0x91, 0x25, 0x0B, 0x3E, 0x36, 0xE0, 0x1C, 0xBD, 
    0x14, 0xE9, 0x25, 0x3D, 0x99, 0x18, 0x1E, 0x3E, 0xFF, 0x49, 0xF3, 0xBD, 
    0x4E, 0xA6, 0x36, 0xBE, 0xEF, 0x63, 0x83, 0xBE, 0x2F, 0x9A, 0x74, 0xBE, 
    0xC8, 0x70, 0x7F, 0xBE, 0x08, 0x42, 0x05, 0x3D, 0x79, 0x0D, 0x24, 0x3E, 
    0x9D, 0x47, 0x04, 0xBB, 0x37, 0xC2, 0x4D, 0x3E, 0xF7, 0x8B, 0x26, 0x3E, 
    0x3C, 0xAC, 0x50, 0x3D, 0x38, 0xF1, 0xAE, 0xBA, 0x99, 0xC6, 0x05, 0x3C, 
    0xBF, 0x52, 0xE6, 0xBD, 0xC4, 0x0E, 0x21, 0x3E, 0xF8, 0x63, 0x6E, 0xBD, 
    0xE1, 0x6A, 0x2C, 0x3E, 0xC8, 0x96, 0x84, 0x3E, 0xC0, 0xCA, 0x8B, 0x3E, 
    0x6A, 0x9C, 0x93, 0x3D, 0xF0, 0x54, 0x37, 0xBE, 0x90, 0x6E, 0x7E, 0x3E, 
    0xBF, 0x90, 0x59, 0x3E, 0xF0, 0xAB, 0xCB, 0xBC, 0xBB, 0x02, 0xAB, 0xBD, 
    0x91, 0xB4, 0x65, 0xBE, 0x30, 0x02, 0x18, 0x3E, 0xFC, 0x43, 0xFE, 0x3B, 
    0xD5, 0xD8, 0x21, 0xBE, 0x42, 0x63, 0x86, 0x3E, 0x35, 0x37, 0x6B, 0xBE, 
    0xB6, 0xB1, 0x73, 0xBE, 0x4E, 0xE2, 0x16, 0xBE, 0x9B, 0xF0, 0x86, 0x3C, 
    0x5F, 0x8C, 0x7C, 0xBE, 0x32, 0xA7, 0x34, 0x3E, 0x7F, 0xD6, 0x8B, 0x3E, 
    0x99, 0xCC, 0x6F, 0x3E, 0xDA, 0xDA, 0x53, 0x3E, 0x55, 0x2B, 0x82, 0x3B, 
    0x73, 0x37, 0x86, 0xBE, 0x33, 0x06, 0x5F, 0x3E, 0x37, 0x30, 0x89, 0xBD, 
    0x7F, 0xB6, 0x85, 0x3D, 0x16, 0x8F, 0x24, 0xBE, 0x0C, 0xAB, 0x52, 0xBE, 
    0xDA, 0x92, 0xFE, 0xBC, 0x79, 0xBB, 0x51, 0x3E, 0xD7, 0x2F, 0x09, 0x3E, 
    0x84, 0x68, 0x6A, 0xBE, 0x39, 0xC2, 0x82, 0x3E, 0x4E, 0x96, 0x52, 0xBE, 
    0x17, 0x2F, 0xC6, 0xBD, 0x91, 0x23, 0x7A, 0x3E, 0xA1, 0x14, 0x2B, 0x3E, 
    0xAE, 0x50, 0x8E, 0x3E, 0x3F, 0x13, 0x47, 0x3E, 0x66, 0x2D, 0x85, 0xBE, 
    0x5A, 0x63, 0xA0, 0xBD, 0x15, 0x3C, 0xD5, 0xBC, 0xB0, 0x24, 0x26, 0xBD, 
    0xA5, 0xFF, 0x61, 0xBD, 0x46, 0x12, 0x91, 0xBE, 0x26, 0x14, 0x7D, 0xBE, 
    0xE2, 0x56, 0x64, 0x3D, 0x2A, 0x34, 0xE3, 0xBD, 0xB0, 0xF7, 0x6D, 0x3E, 
    0x49, 0x70, 0x54, 0xBE, 0x6E, 0xA2, 0xF9, 0x3D, 0xF3, 0xA3, 0xB3, 0x3D, 
    0xAA, 0x71, 0xDD, 0x3D, 0x0E, 0x5A, 0x28, 0x3E, 0xD3, 0x9B, 0x23, 0xBE, 
    0x94, 0xEA, 0x6D, 0x3E, 0xC6, 0x2E, 0x8F, 0xBE, 0x98, 0x1C, 0xEF, 0x3D, 
    0xCB, 0xC6, 0x0C, 0x3E, 0xEA, 0x84, 0x63, 0x3D, 0x21, 0x66, 0x77, 0x3E, 
    0x1C, 0x79, 0x86, 0xBE, 0x9C, 0xFE, 0xD5, 0x3D, 0xE1, 0x6E, 0x8F, 0xBE, 
    0x91, 0xFE, 0x85, 0x3E, 0x19, 0x84, 0x55, 0x3E, 0x75, 0x57, 0x07, 0x3E, 
    0x29, 0x2F, 0x65, 0x3D, 0xD7, 0xEC, 0x8E, 0xBE, 0xCE, 0xE3, 0x0F, 0x3E, 
    0x20, 0x78, 0x8C, 0xBE, 0x87, 0xA6, 0x73, 0x3D, 0x39, 0xF5, 0x56, 0xBD, 
    0xFF, 0x1C, 0x63, 0x3E, 0x10, 0x6F, 0x8B, 0x3D, 0x82, 0xE8, 0x76, 0x3D, 
    0xE8, 0x83, 0x1F, 0xBD, 0x9E, 0x81, 0x34, 0xBE, 0xBE, 0x9D, 0x70, 0xBE, 
    0xBF, 0xF2, 0x28, 0x3E, 0xAF, 0x5E, 0xBE, 0x3D, 0x48, 0x91, 0x48, 0x3E, 
    0xBA, 0xDC, 0x8D, 0x3D, 0xFD, 0xD0, 0x3A, 0xBD, 0xA1, 0x7F, 0xA2, 0xBD, 
    0x76, 0xA6, 0x1F, 0x3E, 0x26, 0xCF, 0x9B, 0xBD, 0xE1, 0x5D, 0xE7, 0x3B, 
    0x2D, 0xDA, 0x86, 0xBE, 0x37, 0x53, 0xFE, 0x3D, 0xD6, 0xA4, 0x87, 0xBD, 
    0x82, 0xB4, 0x1E, 0xBE, 0x5C, 0xB1, 0x95, 0xBE, 0xB8, 0x95, 0xF4, 0x3D, 
    0x16, 0x77, 0x1D, 0xBE, 0x8E, 0x23, 0xC7, 0x3D, 0xF5, 0xD7, 0xD1, 0xBD, 
    0x6F, 0x6A, 0x66, 0x3E, 0xDF, 0x48, 0x03, 0x3E, 0x8D, 0x70, 0x56, 0x3D, 
    0xC9, 0x1B, 0x09, 0xBE, 0xA8, 0xBD, 0x67, 0xBD, 0x2F, 0xF5, 0x80, 0x3D, 
    0x96, 0xB5, 0x71, 0xBE, 0x59, 0xC6, 0x95, 0xBE, 0xBB, 0x56, 0xF0, 0xBD, 
    0x6D, 0xE0, 0x62, 0x3E, 0x39, 0x08, 0xEA, 0x3D, 0x07, 0x37, 0x82, 0x3D, 
    0x9E, 0xB6, 0xD1, 0xBD, 0x9A, 0x93, 0x17, 0x3E, 0x40, 0x6A, 0x07, 0xBD, 
    0xA3, 0x71, 0x2E, 0xBD, 0xB0, 0x0D, 0x25, 0xBE, 0x6B, 0xDE, 0xCE, 0xBD, 
    0xB8, 0x16, 0x1C, 0x3E, 0x69, 0xF4, 0x2A, 0xBE, 0x15, 0xF0, 0x0C, 0xBE, 
    0xCF, 0xA7, 0x7F, 0xBE, 0x40, 0x6B, 0x6F, 0x3E, 0x44, 0xB5, 0x4F, 0x3D, 
    0xA2, 0x40, 0x84, 0x3E, 0x5D, 0x8F, 0x14, 0xBE, 0xBD, 0xB5, 0x74, 0xBE, 
    0xFB, 0x38, 0x92, 0xBD, 0x29, 0xF4, 0x18, 0xBE, 0xB5, 0x42, 0x31, 0xBE, 
    0xF5, 0x72, 0xA9, 0x3D, 0xA5, 0x77, 0x4D, 0xBE, 0x06, 0x1A, 0xDE, 0x3D, 
    0x50, 0x6C, 0x58, 0x3C, 0xA0, 0xB2, 0xBA, 0xBC, 0xE4, 0x1C, 0xE0, 0x3D, 
    0xEB, 0x6D, 0x74, 0x3E, 0x27, 0x0B, 0x86, 0x3E, 0xB9, 0xFA, 0x90, 0x3E, 
    0xBF, 0x99, 0x6C, 0xBE, 0x89, 0x00, 0x59, 0xBE, 0x5F, 0x43, 0x1D, 0xBC, 
    0xC3, 0x70, 0x82, 0xBE, 0x2C, 0xF1, 0xBF, 0xBD, 0xFB, 0xD6, 0x16, 0x3E, 
    0xE9, 0x9B, 0x5A, 0x3E, 0xE4, 0xEB, 0x4D, 0x3E, 0x8E, 0x15, 0x97, 0x3D, 
    0xAD, 0x37, 0x52, 0xBE, 0x3C, 0x95, 0x72, 0x3E, 0xE7, 0x9D, 0x27, 0xBA, 
    0x97, 0x6D, 0xE5, 0xBD, 0xEE, 0x0B, 0x01, 0x3E, 0xF9, 0x18, 0x01, 0x3D, 
    0xD9, 0xC8, 0x1B, 0x3D, 0x35, 0xFE, 0x85, 0x3C, 0x77, 0x44, 0x86, 0xBE, 
    0x27, 0x41, 0xEF, 0x3D, 0x24, 0xC0, 0x17, 0x3E, 0x09, 0xB6, 0xFD, 0x3D, 
    0x12, 0x88, 0x90, 0xBE, 0x20, 0xF1, 0x20, 0xBC, 0x9F, 0x42, 0x65, 0x3E, 
    0x3A, 0x1E, 0x84, 0xBE, 0x3B, 0x96, 0x69, 0x3D, 0x74, 0xBD, 0x8B, 0xBE, 
    0xC5, 0x2A, 0x37, 0x3E, 0x0C, 0x25, 0x59, 0x3E, 0xF0, 0x0A, 0x0A, 0xBE, 
    0x65, 0x70, 0x18, 0xBE, 0x49, 0x70, 0x07, 0x3E, 0xE2, 0xF2, 0x6B, 0x3E, 
    0x81, 0x24, 0x84, 0x3E, 0x2B, 0xF2, 0x3A, 0xBE, 0xEB, 0x08, 0x70, 0xBE, 
    0x2A, 0x28, 0x12, 0x3E, 0x31, 0x86, 0xAF, 0xBD, 0x3A, 0x64, 0x79, 0x3E, 
    0x75, 0x26, 0x81, 0xBE, 0xD6, 0x65, 0x59, 0xBE, 0xB6, 0xE4, 0x7C, 0x3E, 
    0xAE, 0x40, 0x90, 0xBD, 0xD1, 0x4F, 0x54, 0xBE, 0x16, 0x92, 0x2F, 0x3E, 
    0x34, 0x01, 0x46, 0x3E, 0x1A, 0x87, 0x11, 0x3D, 0x57, 0xAF, 0x15, 0xBE, 
    0x17, 0x0B, 0x16, 0x3D, 0xDF, 0x52, 0xBD, 0x3D, 0xB0, 0xED, 0x69, 0xBC, 
    0x1A, 0xA8, 0x1D, 0x3D, 0x47, 0x2D, 0xC6, 0xBD, 0x7A, 0xF0, 0x6C, 0x3E, 
    0xD9, 0x1C, 0xA4, 0x3C, 0x23, 0x41, 0x08, 0x3E, 0x82, 0x5F, 0x23, 0xBD, 
    0x58, 0xBF, 0x25, 0x3E, 0x09, 0xA9, 0x84, 0x3D, 0xE2, 0x18, 0x0A, 0xBE, 
    0x61, 0x6F, 0xDD, 0x3D, 0x73, 0xA9, 0x1E, 0xBE, 0x83, 0x8B, 0x82, 0x3E, 
    0xD5, 0x1A, 0x82, 0xBD, 0xE6, 0xF4, 0x63, 0xBE, 0xD6, 0x15, 0x38, 0xBE, 
    0xBB, 0x71, 0x7C, 0xBD, 0x1D, 0x0A, 0xA5, 0x3D, 0xBD, 0x17, 0x63, 0x3E, 
    0xC9, 0x16, 0x2E, 0x3E, 0xEA, 0x38, 0x8A, 0x3E, 0xB8, 0xD7, 0xCB, 0xBD, 
    0x62, 0x2E, 0x21, 0x3E, 0xDD, 0xB5, 0x46, 0x3D, 0xB5, 0x6E, 0x1B, 0x3E, 
    0x9F, 0xC8, 0x66, 0xBE, 0x9D, 0x9D, 0x5E, 0x3E, 0xF8, 0x8E, 0xD9, 0x3D, 
    0xC8, 0x31, 0x4B, 0x3E, 0x1F, 0xED, 0xB3, 0x3D, 0x64, 0x6F, 0x4A, 0x3E, 
    0xB8, 0x6F, 0x81, 0x3E, 0xBC, 0x69, 0x58, 0xBE, 0x80, 0x6D, 0x67, 0x3D, 
    0x76, 0x41, 0x20, 0x3E, 0x04, 0xBB, 0x9F, 0xBD, 0xF5, 0x74, 0x5A, 0x3E, 
    0xAC, 0x14, 0x0E, 0xBE, 0xE2, 0xB5, 0x07, 0xBE, 0xF4, 0x60, 0x90, 0x3E, 
    0x83, 0x79, 0x6D, 0x3E, 0x5E, 0x03, 0x8F, 0xBE, 0x61, 0xCC, 0x00, 0xBE, 
    0x47, 0xB1, 0x4B, 0xBD, 0xC5, 0x99, 0x12, 0x3D, 0xCF, 0xC2, 0x99, 0xBE, 
    0x86, 0xFA, 0xFF, 0xFF, 0x04, 0x00, 0x00, 0x00, 0x60, 0x00, 0x00, 0x00, 
    0xD4, 0xC9, 0xB3, 0xBD, 0x08, 0x6E, 0xD1, 0x3E, 0xD9, 0x1B, 0xC8, 0xBE, 
    0x91, 0x6C, 0x44, 0x3E, 0x9D, 0x15, 0xDA, 0xBE, 0xE6, 0x90, 0x03, 0x3C, 
    0x79, 0x6A, 0x83, 0x3E, 0x93, 0xA6, 0x53, 0x3E, 0x71, 0x9D, 0xC4, 0xBE, 
    0x6A, 0xC7, 0xE9, 0xBD, 0xA7, 0xAB, 0x15, 0xBD, 0xF8, 0x35, 0xA8, 0xBE, 
    0xB9, 0xDC, 0x0E, 0xBD, 0xAC, 0xD4, 0xCF, 0x3E, 0xF1, 0x59, 0x00, 0x3E, 
    0x85, 0x66, 0x8E, 0x3A, 0x9B, 0x29, 0x8B, 0xBE, 0x53, 0x5D, 0x77, 0x3E, 
    0xF9, 0x40, 0xC6, 0xBE, 0xC1, 0xA7, 0x35, 0x3D, 0xF6, 0x04, 0x2E, 0xBC, 
    0xDF, 0xFE, 0xC9, 0x3E, 0x3B, 0xFE, 0x90, 0xBD, 0xB6, 0x00, 0xD6, 0x3E, 
    0xF2, 0xFA, 0xFF, 0xFF, 0x04, 0x00, 0x00, 0x00, 0x00, 0x01, 0x00, 0x00, 
    0x07, 0x93, 0xD1, 0x3C, 0x53, 0xA7, 0xD0, 0xBE, 0x65, 0xB9, 0x3B, 0xBD, 
    0x1F, 0xA8, 0x33, 0x3D, 0xBB, 0x00, 0x92, 0x3E, 0x1F, 0x85, 0xEC, 0xBD, 
    0xF8, 0x30, 0x51, 0x3D, 0x34, 0xF5, 0xAE, 0x3C, 0x29, 0x36, 0x7C, 0x3E, 
    0xF3, 0xFC, 0xBB, 0x3E, 0xA3, 0x34, 0x9F, 0x3E, 0xDA, 0x84, 0xC0, 0xBE, 
    0x21, 0xF6, 0x33, 0xBE, 0x9D, 0x40, 0xA9, 0x3E, 0x9F, 0x71, 0xB8, 0xBE, 
    0x09, 0x8F, 0x36, 0xBE, 0x3A, 0x05, 0x94, 0xBD, 0x4A, 0x0D, 0x25, 0xBD, 
    0x6C, 0x3D, 0x30, 0x3E, 0xBD, 0x3D, 0xA0, 0xBE, 0xDD, 0x42, 0x69, 0xBE, 
    0x1E, 0x47, 0xD1, 0x3E, 0x5C, 0xE8, 0x79, 0x3B, 0x4F, 0xAB, 0x0E, 0xBE, 
    0x0B, 0x11, 0xA8, 0x3E, 0xB5, 0x41, 0x99, 0xBE, 0x9C, 0xD9, 0x5E, 0x3C, 
    0x7C, 0x24, 0x76, 0x3D, 0x24, 0xFD, 0x87, 0x3E, 0x13, 0x4A, 0xA8, 0x3E, 
    0xB7, 0xC3, 0x33, 0x3E, 0x2A, 0x1A, 0xA4, 0x3D, 0xC7, 0x87, 0xE3, 0x3C, 
    0x06, 0x4B, 0xCA, 0xBD, 0x6D, 0x11, 0x8D, 0x3E, 0x25, 0x49, 0x7E, 0xBE, 
    0xA4, 0x3B, 0xA3, 0xBE, 0x64, 0x39, 0x3B, 0xBD, 0x1D, 0x3C, 0x65, 0xBE, 
    0xBA, 0x7F, 0x11, 0xBE, 0x48, 0xA3, 0x53, 0xBE, 0xBB, 0xF4, 0xB1, 0x3E, 
    0x3F, 0xDC, 0x2B, 0x3E, 0x89, 0x5E, 0xA4, 0x3E, 0xEC, 0x09, 0x8D, 0x3D, 
    0xA6, 0x42, 0x1D, 0xBD, 0xA7, 0x2A, 0x2F, 0x3D, 0x65, 0x9A, 0x57, 0xBE, 
    0xC6, 0x2F, 0x4A, 0x3D, 0x6C, 0x8A, 0xD0, 0xBE, 0xCB, 0xEA, 0x8C, 0x3C, 
    0x07, 0xBD, 0xA8, 0xBE, 0x92, 0x9C, 0x84, 0x3E, 0x3B, 0xA3, 0xE4, 0xBD, 
    0x84, 0x01, 0x54, 0xBE, 0xCD, 0x01, 0x91, 0x3D, 0x8C, 0x59, 0xC5, 0xBE, 
    0x83, 0xAC, 0xA9, 0xBD, 0xC4, 0x86, 0x9B, 0xBC, 0xD2, 0xD1, 0x4A, 0x3E, 
    0x52, 0x63, 0xB2, 0x3E, 0x55, 0xF3, 0x44, 0xBE, 0x95, 0x39, 0xA4, 0x3E, 
    0xFC, 0x8C, 0x5D, 0x3E, 0xFE, 0xFB, 0xFF, 0xFF, 0x04, 0x00, 0x00, 0x00, 
    0x80, 0x00, 0x00, 0x00, 0x69, 0x51, 0x83, 0x3D, 0xF9, 0x07, 0x1F, 0x3E, 
    0xED, 0x87, 0x1F, 0x3E, 0x2A, 0xA2, 0x1E, 0xBE, 0xE9, 0x6C, 0x32, 0xBE, 
    0x29, 0x2C, 0xEF, 0x3D, 0xDF, 0x67, 0xA6, 0xBD, 0x9E, 0xD3, 0x00, 0xBE, 
    0xD2, 0x50, 0x10, 0xBE, 0xD7, 0x6A, 0x33, 0xBE, 0xF4, 0x91, 0x1F, 0xBE, 
    0xE9, 0x83, 0xCC, 0x3C, 0x27, 0xED, 0x29, 0x3E, 0x65, 0xCE, 0x48, 0xBE, 
    0x09, 0x85, 0x1A, 0xBC, 0x3A, 0x80, 0x0D, 0xBE, 0x1C, 0x38, 0x3B, 0x3E, 
    0x21, 0xB1, 0x03, 0xBE, 0x66, 0x33, 0x2D, 0xBD, 0xEB, 0x6E, 0xD5, 0xBD, 
    0x1A, 0x01, 0x1F, 0x3E, 0x75, 0x15, 0x20, 0xBE, 0xAD, 0xAD, 0xD0, 0xBD, 
    0xCC, 0xC0, 0x83, 0x3E, 0xAE, 0x82, 0x14, 0xBE, 0x46, 0xA3, 0xC5, 0x3D, 
    0x06, 0x88, 0x0B, 0xBE, 0xD5, 0xDE, 0x1E, 0x3E, 0x7D, 0x04, 0x19, 0x3E, 
    0x28, 0x12, 0x1E, 0xBE, 0x87, 0x5F, 0x76, 0x3E, 0x6C, 0xCB, 0xFA, 0x3D, 
    0x8A, 0xFC, 0xFF, 0xFF, 0x04, 0x00, 0x00, 0x00, 0x08, 0x00, 0x00, 0x00, 
    0x9D, 0x21, 0x20, 0xBE, 0x9D, 0x21, 0x20, 0x3E, 0x08, 0xEE, 0xFF, 0xFF, 
    0xA2, 0xFC, 0xFF, 0xFF, 0x04, 0x00, 0x00, 0x00, 0x04, 0x00, 0x00, 0x00, 
    0x00, 0x00, 0x00, 0x00, 0xB2, 0xFC, 0xFF, 0xFF, 0x04, 0x00, 0x00, 0x00, 
    0x04, 0x00, 0x00, 0x00, 0x01, 0x00, 0x00, 0x00, 0xC2, 0xFC, 0xFF, 0xFF, 
    0x04, 0x00, 0x00, 0x00, 0x04, 0x00, 0x00, 0x00, 0x80, 0x3E, 0x00, 0x00, 
    0xD2, 0xFC, 0xFF, 0xFF, 0x04, 0x00, 0x00, 0x00, 0x08, 0x00, 0x00, 0x00, 
    0x01, 0x00, 0x00, 0x00, 0x02, 0x00, 0x00, 0x00, 0x50, 0xEE, 0xFF, 0xFF, 
    0x54, 0xEE, 0xFF, 0xFF, 0x0F, 0x00, 0x00, 0x00, 0x4D, 0x4C, 0x49, 0x52, 
    0x20, 0x43, 0x6F, 0x6E, 0x76, 0x65, 0x72, 0x74, 0x65, 0x64, 0x2E, 0x00, 
    0x01, 0x00, 0x00, 0x00, 0x14, 0x00, 0x00, 0x00, 0x00, 0x00, 0x0E, 0x00, 
    0x18, 0x00, 0x14, 0x00, 0x10, 0x00, 0x0C, 0x00, 0x08, 0x00, 0x04, 0x00, 
    0x0E, 0x00, 0x00, 0x00, 0x14, 0x00, 0x00, 0x00, 0x1C, 0x00, 0x00, 0x00, 
    0xA4, 0x03, 0x00, 0x00, 0xA8, 0x03, 0x00, 0x00, 0xAC, 0x03, 0x00, 0x00, 
    0x04, 0x00, 0x00, 0x00, 0x6D, 0x61, 0x69, 0x6E, 0x00, 0x00, 0x00, 0x00, 
    0x0D, 0x00, 0x00, 0x00, 0x54, 0x03, 0x00, 0x00, 0xF4, 0x02, 0x00, 0x00, 
    0x9C, 0x02, 0x00, 0x00, 0x74, 0x02, 0x00, 0x00, 0x14, 0x02, 0x00, 0x00, 
    0xC0, 0x01, 0x00, 0x00, 0x78, 0x01, 0x00, 0x00, 0x34, 0x01, 0x00, 0x00, 
    0xEC, 0x00, 0x00, 0x00, 0xB8, 0x00, 0x00, 0x00, 0x70, 0x00, 0x00, 0x00, 
    0x38, 0x00, 0x00, 0x00, 0x04, 0x00, 0x00, 0x00, 0x4A, 0xFD, 0xFF, 0xFF, 
    0x14, 0x00, 0x00, 0x00, 0x00, 0x00, 0x00, 0x09, 0x14, 0x00, 0x00, 0x00, 
    0x18, 0x00, 0x00, 0x00, 0x08, 0x00, 0x00, 0x00, 0x8E, 0xFD, 0xFF, 0xFF, 
    0x00, 0x00, 0x80, 0x3F, 0x01, 0x00, 0x00, 0x00, 0x1C, 0x00, 0x00, 0x00, 
    0x01, 0x00, 0x00, 0x00, 0x1B, 0x00, 0x00, 0x00, 0x7A, 0xFD, 0xFF, 0xFF, 
    0x14, 0x00, 0x00, 0x00, 0x00, 0x00, 0x00, 0x08, 0x10, 0x00, 0x00, 0x00, 
    0x14, 0x00, 0x00, 0x00, 0x07, 0x00, 0x00, 0x00, 0x28, 0xEF, 0xFF, 0xFF, 
    0x01, 0x00, 0x00, 0x00, 0x1B, 0x00, 0x00, 0x00, 0x03, 0x00, 0x00, 0x00, 
    0x1A, 0x00, 0x00, 0x00, 0x08, 0x00, 0x00, 0x00, 0x06, 0x00, 0x00, 0x00, 
    0xAE, 0xFD, 0xFF, 0xFF, 0x20, 0x00, 0x00, 0x00, 0x00, 0x00, 0x00, 0x08, 
    0x20, 0x00, 0x00, 0x00, 0x24, 0x00, 0x00, 0x00, 0x07, 0x00, 0x00, 0x00, 
    0x0C, 0x00, 0x08, 0x00, 0x07, 0x00, 0x00, 0x00, 0x00, 0x00, 0x06, 0x00, 
    0x0C, 0x00, 0x00, 0x00, 0x00, 0x00, 0x01, 0x01, 0x01, 0x00, 0x00, 0x00, 
    0x1A, 0x00, 0x00, 0x00, 0x03, 0x00, 0x00, 0x00, 0x19, 0x00, 0x00, 0x00, 
    0x0F, 0x00, 0x00, 0x00, 0x07, 0x00, 0x00, 0x00, 0xF2, 0xFD, 0xFF, 0xFF, 
    0x14, 0x00, 0x00, 0x00, 0x00, 0x00, 0x00, 0x1B, 0x10, 0x00, 0x00, 0x00, 
    0x14, 0x00, 0x00, 0x00, 0x06, 0x00, 0x00, 0x00, 0xA0, 0xEF, 0xFF, 0xFF, 
    0x01, 0x00, 0x00, 0x00, 0x19, 0x00, 0x00, 0x00, 0x02, 0x00, 0x00, 0x00, 
    0x18, 0x00, 0x00, 0x00, 0x01, 0x00, 0x00, 0x00, 0x22, 0xFE, 0xFF, 0xFF, 
    0x14, 0x00, 0x00, 0x00, 0x00, 0x00, 0x00, 0x01, 0x20, 0x00, 0x00, 0x00, 
    0x24, 0x00, 0x00, 0x00, 0x04, 0x00, 0x00, 0x00, 0xE8, 0xFE, 0xFF, 0xFF, 
    0x00, 0x00, 0x00, 0x01, 0x01, 0x00, 0x00, 0x00, 0x01, 0x00, 0x00, 0x00, 
    0x00, 0x00, 0x00, 0x01, 0x01, 0x00, 0x00, 0x00, 0x18, 0x00, 0x00, 0x00, 
    0x03, 0x00, 0x00, 0x00, 0x17, 0x00, 0x00, 0x00, 0x0E, 0x00, 0x00, 0x00, 
    0x0B, 0x00, 0x00, 0x00, 0x66, 0xFE, 0xFF, 0xFF, 0x14, 0x00, 0x00, 0x00, 
    0x00, 0x00, 0x00, 0x05, 0x24, 0x00, 0x00, 0x00, 0x28, 0x00, 0x00, 0x00, 
    0x05, 0x00, 0x00, 0x00, 0x7A, 0xFF, 0xFF, 0xFF, 0x02, 0x00, 0x00, 0x00, 
    0x01, 0x00, 0x00, 0x00, 0x02, 0x00, 0x00, 0x00, 0x01, 0x00, 0x00, 0x00, 
    0x00, 0x00, 0x00, 0x01, 0x01, 0x00, 0x00, 0x00, 0x17, 0x00, 0x00, 0x00, 
    0x01, 0x00, 0x00, 0x00, 0x16, 0x00, 0x00, 0x00, 0xA6, 0xFE, 0xFF, 0xFF, 
    0x14, 0x00, 0x00, 0x00, 0x00, 0x00, 0x00, 0x01, 0x20, 0x00, 0x00, 0x00, 
    0x24, 0x00, 0x00, 0x00, 0x04, 0x00, 0x00, 0x00, 0x6C, 0xFF, 0xFF, 0xFF, 
    0x00, 0x00, 0x00, 0x01, 0x01, 0x00, 0x00, 0x00, 0x01, 0x00, 0x00, 0x00, 
    0x00, 0x00, 0x00, 0x01, 0x01, 0x00, 0x00, 0x00, 0x16, 0x00, 0x00, 0x00, 
    0x03, 0x00, 0x00, 0x00, 0x15, 0x00, 0x00, 0x00, 0x0A, 0x00, 0x00, 0x00, 
    0x0C, 0x00, 0x00, 0x00, 0xEA, 0xFE, 0xFF, 0xFF, 0x24, 0x00, 0x00, 0x00, 
    0x00, 0x00, 0x00, 0x05, 0x34, 0x00, 0x00, 0x00, 0x38, 0x00, 0x00, 0x00, 
    0x05, 0x00, 0x00, 0x00, 0x00, 0x00, 0x0E, 0x00, 0x18, 0x00, 0x17, 0x00, 
    0x10, 0x00, 0x0C, 0x00, 0x08, 0x00, 0x04, 0x00, 0x0E, 0x00, 0x00, 0x00, 
    0x02, 0x00, 0x00, 0x00, 0x01, 0x00, 0x00, 0x00, 0x02, 0x00, 0x00, 0x00, 
    0x01, 0x00, 0x00, 0x00, 0x00, 0x00, 0x00, 0x01, 0x01, 0x00, 0x00, 0x00, 
    0x15, 0x00, 0x00, 0x00, 0x01, 0x00, 0x00, 0x00, 0x14, 0x00, 0x00, 0x00, 
    0x3A, 0xFF, 0xFF, 0xFF, 0x20, 0x00, 0x00, 0x00, 0x00, 0x00, 0x00, 0x01, 
    0x2C, 0x00, 0x00, 0x00, 0x30, 0x00, 0x00, 0x00, 0x04, 0x00, 0x00, 0x00, 
    0x0C, 0x00, 0x14, 0x00, 0x13, 0x00, 0x0C, 0x00, 0x08, 0x00, 0x07, 0x00, 
    0x0C, 0x00, 0x00, 0x00, 0x00, 0x00, 0x00, 0x01, 0x01, 0x00, 0x00, 0x00, 
    0x01, 0x00, 0x00, 0x00, 0x00, 0x00, 0x00, 0x01, 0x01, 0x00, 0x00, 0x00, 
    0x14, 0x00, 0x00, 0x00, 0x03, 0x00, 0x00, 0x00, 0x13, 0x00, 0x00, 0x00, 
    0x09, 0x00, 0x00, 0x00, 0x0D, 0x00, 0x00, 0x00, 0x00, 0x00, 0x0A, 0x00, 
    0x10, 0x00, 0x0C, 0x00, 0x08, 0x00, 0x04, 0x00, 0x0A, 0x00, 0x00, 0x00, 
    0x0C, 0x00, 0x00, 0x00, 0x10, 0x00, 0x00, 0x00, 0x03, 0x00, 0x00, 0x00, 
    0x01, 0x00, 0x00, 0x00, 0x13, 0x00, 0x00, 0x00, 0x02, 0x00, 0x00, 0x00, 
    0x00, 0x00, 0x00, 0x00, 0x12, 0x00, 0x00, 0x00, 0xBA, 0xFF, 0xFF, 0xFF, 
    0x1C, 0x00, 0x00, 0x00, 0x00, 0x00, 0x00, 0x3B, 0x1C, 0x00, 0x00, 0x00, 
    0x20, 0x00, 0x00, 0x00, 0x02, 0x00, 0x00, 0x00, 0x00, 0x00, 0x06, 0x00, 
    0x08, 0x00, 0x04, 0x00, 0x06, 0x00, 0x00, 0x00, 0x04, 0x00, 0x00, 0x00, 
    0x01, 0x00, 0x00, 0x00, 0x12, 0x00, 0x00, 0x00, 0x04, 0x00, 0x00, 0x00, 
    0x11, 0x00, 0x00, 0x00, 0x02, 0x00, 0x00, 0x00, 0x03, 0x00, 0x00, 0x00, 
    0x03, 0x00, 0x00, 0x00, 0x00, 0x00, 0x0E, 0x00, 0x1A, 0x00, 0x14, 0x00, 
    0x10, 0x00, 0x0C, 0x00, 0x0B, 0x00, 0x04, 0x00, 0x0E, 0x00, 0x00, 0x00, 
    0x24, 0x00, 0x00, 0x00, 0x00, 0x00, 0x00, 0x20, 0x24, 0x00, 0x00, 0x00, 
    0x28, 0x00, 0x00, 0x00, 0x01, 0x00, 0x00, 0x00, 0x00, 0x00, 0x0E, 0x00, 
    0x08, 0x00, 0x00, 0x00, 0x00, 0x00, 0x00, 0x00, 0x00, 0x00, 0x04, 0x00, 
    0x0E, 0x00, 0x00, 0x00, 0x01, 0x00, 0x00, 0x00, 0x01, 0x00, 0x00, 0x00, 
    0x11, 0x00, 0x00, 0x00, 0x04, 0x00, 0x00, 0x00, 0x10, 0x00, 0x00, 0x00, 
    0x04, 0x00, 0x00, 0x00, 0x05, 0x00, 0x00, 0x00, 0x05, 0x00, 0x00, 0x00, 
    0x00, 0x00, 0x0E, 0x00, 0x16, 0x00, 0x00, 0x00, 0x10, 0x00, 0x0C, 0x00, 
    0x0B, 0x00, 0x04, 0x00, 0x0E, 0x00, 0x00, 0x00, 0x18, 0x00, 0x00, 0x00, 
    0x00, 0x00, 0x00, 0x37, 0x18, 0x00, 0x00, 0x00, 0x1C, 0x00, 0x00, 0x00, 
    0x00, 0x00, 0x06, 0x00, 0x08, 0x00, 0x07, 0x00, 0x06, 0x00, 0x00, 0x00, 
    0x00, 0x00, 0x00, 0x02, 0x01, 0x00, 0x00, 0x00, 0x10, 0x00, 0x00, 0x00, 
    0x01, 0x00, 0x00, 0x00, 0x00, 0x00, 0x00, 0x00, 0x01, 0x00, 0x00, 0x00, 
    0x1C, 0x00, 0x00, 0x00, 0x01, 0x00, 0x00, 0x00, 0x00, 0x00, 0x00, 0x00, 
    0x1D, 0x00, 0x00, 0x00, 0x90, 0x0D, 0x00, 0x00, 0x38, 0x0D, 0x00, 0x00, 
    0xE4, 0x0C, 0x00, 0x00, 0xA8, 0x0C, 0x00, 0x00, 0x68, 0x0C, 0x00, 0x00, 
    0x28, 0x0C, 0x00, 0x00, 0xEC, 0x0B, 0x00, 0x00, 0x98, 0x0B, 0x00, 0x00, 
    0x58, 0x0B, 0x00, 0x00, 0x10, 0x0B, 0x00, 0x00, 0xC8, 0x0A, 0x00, 0x00, 
    0x88, 0x0A, 0x00, 0x00, 0x48, 0x0A, 0x00, 0x00, 0x08, 0x0A, 0x00, 0x00, 
    0x1C, 0x08, 0x00, 0x00, 0x44, 0x06, 0x00, 0x00, 0xF4, 0x05, 0x00, 0x00, 
    0xA0, 0x05, 0x00, 0x00, 0x48, 0x05, 0x00, 0x00, 0xD8, 0x04, 0x00, 0x00, 
    0x30, 0x04, 0x00, 0x00, 0xB8, 0x03, 0x00, 0x00, 0x08, 0x03, 0x00, 0x00, 
    0x8C, 0x02, 0x00, 0x00, 0xDC, 0x01, 0x00, 0x00, 0x6C, 0x01, 0x00, 0x00, 
    0xDC, 0x00, 0x00, 0x00, 0x60, 0x00, 0x00, 0x00, 0x04, 0x00, 0x00, 0x00, 
    0xFA, 0xF2, 0xFF, 0xFF, 0x00, 0x00, 0x00, 0x01, 0x14, 0x00, 0x00, 0x00, 
    0x1C, 0x00, 0x00, 0x00, 0x1C, 0x00, 0x00, 0x00, 0x1D, 0x00, 0x00, 0x00, 
    0x34, 0x00, 0x00, 0x00, 0x02, 0x00, 0x00, 0x00, 0xFF, 0xFF, 0xFF, 0xFF, 
    0x02, 0x00, 0x00, 0x00, 0xE4, 0xF2, 0xFF, 0xFF, 0x1B, 0x00, 0x00, 0x00, 
    0x53, 0x74, 0x61, 0x74, 0x65, 0x66, 0x75, 0x6C, 0x50, 0x61, 0x72, 0x74, 
    0x69, 0x74, 0x69, 0x6F, 0x6E, 0x65, 0x64, 0x43, 0x61, 0x6C, 0x6C, 0x5F, 
    0x31, 0x3A, 0x30, 0x00, 0x02, 0x00, 0x00, 0x00, 0x01, 0x00, 0x00, 0x00, 
    0x02, 0x00, 0x00, 0x00, 0x52, 0xF3, 0xFF, 0xFF, 0x00, 0x00, 0x00, 0x01, 
    0x14, 0x00, 0x00, 0x00, 0x1C, 0x00, 0x00, 0x00, 0x1C, 0x00, 0x00, 0x00, 
    0x1C, 0x00, 0x00, 0x00, 0x54, 0x00, 0x00, 0x00, 0x02, 0x00, 0x00, 0x00, 
    0xFF, 0xFF, 0xFF, 0xFF, 0x02, 0x00, 0x00, 0x00, 0x3C, 0xF3, 0xFF, 0xFF, 
    0x38, 0x00, 0x00, 0x00, 0x73, 0x65, 0x71, 0x75, 0x65, 0x6E, 0x74, 0x69, 
    0x61, 0x6C, 0x5F, 0x31, 0x2F, 0x64, 0x65, 0x6E, 0x73, 0x65, 0x5F, 0x31, 
    0x5F, 0x32, 0x2F, 0x4D, 0x61, 0x74, 0x4D, 0x75, 0x6C, 0x3B, 0x73, 0x65, 
    0x71, 0x75, 0x65, 0x6E, 0x74, 0x69, 0x61, 0x6C, 0x5F, 0x31, 0x2F, 0x64, 
    0x65, 0x6E, 0x73, 0x65, 0x5F, 0x31, 0x5F, 0x32, 0x2F, 0x41, 0x64, 0x64, 
    0x00, 0x00, 0x00, 0x00, 0x02, 0x00, 0x00, 0x00, 0x01, 0x00, 0x00, 0x00, 
    0x02, 0x00, 0x00, 0x00, 0xCA, 0xF3, 0xFF, 0xFF, 0x00, 0x00, 0x00, 0x01, 
    0x14, 0x00, 0x00, 0x00, 0x1C, 0x00, 0x00, 0x00, 0x1C, 0x00, 0x00, 0x00, 
    0x1B, 0x00, 0x00, 0x00, 0x68, 0x00, 0x00, 0x00, 0x02, 0x00, 0x00, 0x00, 
    0xFF, 0xFF, 0xFF, 0xFF, 0x20, 0x00, 0x00, 0x00, 0xB4, 0xF3, 0xFF, 0xFF, 
    0x4E, 0x00, 0x00, 0x00, 0x73, 0x65, 0x71, 0x75, 0x65, 0x6E, 0x74, 0x69, 
    0x61, 0x6C, 0x5F, 0x31, 0x2F, 0x64, 0x65, 0x6E, 0x73, 0x65, 0x5F, 0x31, 
    0x2F, 0x4D, 0x61, 0x74, 0x4D, 0x75, 0x6C, 0x3B, 0x73, 0x65, 0x71, 0x75, 
    0x65, 0x6E, 0x74, 0x69, 0x61, 0x6C, 0x5F, 0x31, 0x2F, 0x64, 0x65, 0x6E, 
    0x73, 0x65, 0x5F, 0x31, 0x2F, 0x52, 0x65, 0x6C, 0x75, 0x3B, 0x73, 0x65, 
    0x71, 0x75, 0x65, 0x6E, 0x74, 0x69, 0x61, 0x6C, 0x5F, 0x31, 0x2F, 0x64, 
    0x65, 0x6E, 0x73, 0x65, 0x5F, 0x31, 0x2F, 0x41, 0x64, 0x64, 0x00, 0x00, 
    0x02, 0x00, 0x00, 0x00, 0x01, 0x00, 0x00, 0x00, 0x20, 0x00, 0x00, 0x00, 
    0x56, 0xF4, 0xFF, 0xFF, 0x00, 0x00, 0x00, 0x01, 0x14, 0x00, 0x00, 0x00, 
    0x1C, 0x00, 0x00, 0x00, 0x1C, 0x00, 0x00, 0x00, 0x1A, 0x00, 0x00, 0x00, 
    0x48, 0x00, 0x00, 0x00, 0x02, 0x00, 0x00, 0x00, 0xFF, 0xFF, 0xFF, 0xFF, 
    0x20, 0x00, 0x00, 0x00, 0x40, 0xF4, 0xFF, 0xFF, 0x2C, 0x00, 0x00, 0x00, 
    0x73, 0x65, 0x71, 0x75, 0x65, 0x6E, 0x74, 0x69, 0x61, 0x6C, 0x5F, 0x31, 
    0x2F, 0x67, 0x6C, 0x6F, 0x62, 0x61, 0x6C, 0x5F, 0x61, 0x76, 0x65, 0x72, 
    0x61, 0x67, 0x65, 0x5F, 0x70, 0x6F, 0x6F, 0x6C, 0x69, 0x6E, 0x67, 0x32, 
    0x64, 0x5F, 0x31, 0x2F, 0x4D, 0x65, 0x61, 0x6E, 0x00, 0x00, 0x00, 0x00, 
    0x02, 0x00, 0x00, 0x00, 0x01, 0x00, 0x00, 0x00, 0x20, 0x00, 0x00, 0x00, 
    0xC2, 0xF4, 0xFF, 0xFF, 0x00, 0x00, 0x00, 0x01, 0x14, 0x00, 0x00, 0x00, 
    0x24, 0x00, 0x00, 0x00, 0x24, 0x00, 0x00, 0x00, 0x19, 0x00, 0x00, 0x00, 
    0x80, 0x00, 0x00, 0x00, 0x04, 0x00, 0x00, 0x00, 0xFF, 0xFF, 0xFF, 0xFF, 
    0x9C, 0x0F, 0x00, 0x00, 0x01, 0x00, 0x00, 0x00, 0x20, 0x00, 0x00, 0x00, 
    0xB4, 0xF4, 0xFF, 0xFF, 0x5D, 0x00, 0x00, 0x00, 0x73, 0x65, 0x71, 0x75, 
    0x65, 0x6E, 0x74, 0x69, 0x61, 0x6C, 0x5F, 0x31, 0x2F, 0x63, 0x6F, 0x6E, 
    0x76, 0x32, 0x64, 0x5F, 0x32, 0x5F, 0x31, 0x2F, 0x52, 0x65, 0x6C, 0x75, 
    0x3B, 0x73, 0x65, 0x71, 0x75, 0x65, 0x6E, 0x74, 0x69, 0x61, 0x6C, 0x5F, 
    0x31, 0x2F, 0x63, 0x6F, 0x6E, 0x76, 0x32, 0x64, 0x5F, 0x32, 0x5F, 0x31, 
    0x2F, 0x61, 0x64, 0x64, 0x3B, 0x73, 0x65, 0x71, 0x75, 0x65, 0x6E, 0x74, 
    0x69, 0x61, 0x6C, 0x5F, 0x31, 0x2F, 0x63, 0x6F, 0x6E, 0x76, 0x32, 0x64, 
    0x5F, 0x32, 0x5F, 0x31, 0x2F, 0x63, 0x6F, 0x6E, 0x76, 0x6F, 0x6C, 0x75, 
    0x74, 0x69, 0x6F, 0x6E, 0x3B, 0x00, 0x00, 0x00, 0x04, 0x00, 0x00, 0x00, 
    0x01, 0x00, 0x00, 0x00, 0x9C, 0x0F, 0x00, 0x00, 0x01, 0x00, 0x00, 0x00, 
    0x20, 0x00, 0x00, 0x00, 0x6E, 0xF5, 0xFF, 0xFF, 0x00, 0x00, 0x00, 0x01, 
    0x14, 0x00, 0x00, 0x00, 0x24, 0x00, 0x00, 0x00, 0x24, 0x00, 0x00, 0x00, 
    0x18, 0x00, 0x00, 0x00, 0x4C, 0x00, 0x00, 0x00, 0x04, 0x00, 0x00, 0x00, 
    0xFF, 0xFF, 0xFF, 0xFF, 0x9E, 0x0F, 0x00, 0x00, 0x01, 0x00, 0x00, 0x00, 
    0x10, 0x00, 0x00, 0x00, 0x60, 0xF5, 0xFF, 0xFF, 0x28, 0x00, 0x00, 0x00, 
    0x73, 0x65, 0x71, 0x75, 0x65, 0x6E, 0x74, 0x69, 0x61, 0x6C, 0x5F, 0x31, 
    0x2F, 0x6D, 0x61, 0x78, 0x5F, 0x70, 0x6F, 0x6F, 0x6C, 0x69, 0x6E, 0x67, 
    0x32, 0x64, 0x5F, 0x31, 0x5F, 0x32, 0x2F, 0x4D, 0x61, 0x78, 0x50, 0x6F, 
    0x6F, 0x6C, 0x32, 0x64, 0x00, 0x00, 0x00, 0x00, 0x04, 0x00, 0x00, 0x00, 
    0x01, 0x00, 0x00, 0x00, 0x9E, 0x0F, 0x00, 0x00, 0x01, 0x00, 0x00, 0x00, 
    0x10, 0x00, 0x00, 0x00, 0xE6, 0xF5, 0xFF, 0xFF, 0x00, 0x00, 0x00, 0x01, 
    0x14, 0x00, 0x00, 0x00, 0x24, 0x00, 0x00, 0x00, 0x24, 0x00, 0x00, 0x00, 
    0x17, 0x00, 0x00, 0x00, 0x80, 0x00, 0x00, 0x00, 0x04, 0x00, 0x00, 0x00, 
    0xFF, 0xFF, 0xFF, 0xFF, 0x3D, 0x1F, 0x00, 0x00, 0x01, 0x00, 0x00, 0x00, 
    0x10, 0x00, 0x00, 0x00, 0xD8, 0xF5, 0xFF, 0xFF, 0x5D, 0x00, 0x00, 0x00, 
    0x73, 0x65, 0x71, 0x75, 0x65, 0x6E, 0x74, 0x69, 0x61, 0x6C, 0x5F, 0x31, 
    0x2F, 0x63, 0x6F, 0x6E, 0x76, 0x32, 0x64, 0x5F, 0x31, 0x5F, 0x32, 0x2F, 
    0x52, 0x65, 0x6C, 0x75, 0x3B, 0x73, 0x65, 0x71, 0x75, 0x65, 0x6E, 0x74, 
    0x69, 0x61, 0x6C, 0x5F, 0x31, 0x2F, 0x63, 0x6F, 0x6E, 0x76, 0x32, 0x64, 
    0x5F, 0x31, 0x5F, 0x32, 0x2F, 0x61, 0x64, 0x64, 0x3B, 0x73, 0x65, 0x71, 
    0x75, 0x65, 0x6E, 0x74, 0x69, 0x61, 0x6C, 0x5F, 0x31, 0x2F, 0x63, 0x6F, 
    0x6E, 0x76, 0x32, 0x64, 0x5F, 0x31, 0x5F, 0x32, 0x2F, 0x63, 0x6F, 0x6E, 
    0x76, 0x6F, 0x6C, 0x75, 0x74, 0x69, 0x6F, 0x6E, 0x3B, 0x00, 0x00, 0x00, 
    0x04, 0x00, 0x00, 0x00, 0x01, 0x00, 0x00, 0x00, 0x3D, 0x1F, 0x00, 0x00, 
    0x01, 0x00, 0x00, 0x00, 0x10, 0x00, 0x00, 0x00, 0x92, 0xF6, 0xFF, 0xFF, 
    0x00, 0x00, 0x00, 0x01, 0x14, 0x00, 0x00, 0x00, 0x24, 0x00, 0x00, 0x00, 
    0x24, 0x00, 0x00, 0x00, 0x16, 0x00, 0x00, 0x00, 0x48, 0x00, 0x00, 0x00, 
    0x04, 0x00, 0x00, 0x00, 0xFF, 0xFF, 0xFF, 0xFF, 0x3F, 0x1F, 0x00, 0x00, 
    0x01, 0x00, 0x00, 0x00, 0x08, 0x00, 0x00, 0x00, 0x84, 0xF6, 0xFF, 0xFF, 
    0x26, 0x00, 0x00, 0x00, 0x73, 0x65, 0x71, 0x75, 0x65, 0x6E, 0x74, 0x69, 
    0x61, 0x6C, 0x5F, 0x31, 0x2F, 0x6D, 0x61, 0x78, 0x5F, 0x70, 0x6F, 0x6F, 
    0x6C, 0x69, 0x6E, 0x67, 0x32, 0x64, 0x5F, 0x31, 0x2F, 0x4D, 0x61, 0x78, 
    0x50, 0x6F, 0x6F, 0x6C, 0x32, 0x64, 0x00, 0x00, 0x04, 0x00, 0x00, 0x00, 
    0x01, 0x00, 0x00, 0x00, 0x3F, 0x1F, 0x00, 0x00, 0x01, 0x00, 0x00, 0x00, 
    0x08, 0x00, 0x00, 0x00, 0x06, 0xF7, 0xFF, 0xFF, 0x00, 0x00, 0x00, 0x01, 
    0x14, 0x00, 0x00, 0x00, 0x24, 0x00, 0x00, 0x00, 0x24, 0x00, 0x00, 0x00, 
    0x15, 0x00, 0x00, 0x00, 0x78, 0x00, 0x00, 0x00, 0x04, 0x00, 0x00, 0x00, 
    0xFF, 0xFF, 0xFF, 0xFF, 0x7E, 0x3E, 0x00, 0x00, 0x01, 0x00, 0x00, 0x00, 
    0x08, 0x00, 0x00, 0x00, 0xF8, 0xF6, 0xFF, 0xFF, 0x57, 0x00, 0x00, 0x00, 
    0x73, 0x65, 0x71, 0x75, 0x65, 0x6E, 0x74, 0x69, 0x61, 0x6C, 0x5F, 0x31, 
    0x2F, 0x63, 0x6F, 0x6E, 0x76, 0x32, 0x64, 0x5F, 0x31, 0x2F, 0x52, 0x65, 
    0x6C, 0x75, 0x3B, 0x73, 0x65, 0x71, 0x75, 0x65, 0x6E, 0x74, 0x69, 0x61, 
    0x6C, 0x5F, 0x31, 0x2F, 0x63, 0x6F, 0x6E, 0x76, 0x32, 0x64, 0x5F, 0x31, 
    0x2F, 0x61, 0x64, 0x64, 0x3B, 0x73, 0x65, 0x71, 0x75, 0x65, 0x6E, 0x74, 
    0x69, 0x61, 0x6C, 0x5F, 0x31, 0x2F, 0x63, 0x6F, 0x6E, 0x76, 0x32, 0x64, 
    0x5F, 0x31, 0x2F, 0x63, 0x6F, 0x6E, 0x76, 0x6F, 0x6C, 0x75, 0x74, 0x69, 
    0x6F, 0x6E, 0x3B, 0x00, 0x04, 0x00, 0x00, 0x00, 0x01, 0x00, 0x00, 0x00, 
    0x7E, 0x3E, 0x00, 0x00, 0x01, 0x00, 0x00, 0x00, 0x08, 0x00, 0x00, 0x00, 
    0xAA, 0xF7, 0xFF, 0xFF, 0x00, 0x00, 0x00, 0x01, 0x14, 0x00, 0x00, 0x00, 
    0x24, 0x00, 0x00, 0x00, 0x24, 0x00, 0x00, 0x00, 0x14, 0x00, 0x00, 0x00, 
    0x40, 0x00, 0x00, 0x00, 0x04, 0x00, 0x00, 0x00, 0xFF, 0xFF, 0xFF, 0xFF, 
    0x80, 0x3E, 0x00, 0x00, 0x01, 0x00, 0x00, 0x00, 0x01, 0x00, 0x00, 0x00, 
    0x9C, 0xF7, 0xFF, 0xFF, 0x1E, 0x00, 0x00, 0x00, 0x73, 0x65, 0x71, 0x75, 
    0x65, 0x6E, 0x74, 0x69, 0x61, 0x6C, 0x5F, 0x31, 0x2F, 0x72, 0x65, 0x73, 
    0x68, 0x61, 0x70, 0x65, 0x5F, 0x31, 0x2F, 0x52, 0x65, 0x73, 0x68, 0x61, 
    0x70, 0x65, 0x00, 0x00, 0x04, 0x00, 0x00, 0x00, 0x01, 0x00, 0x00, 0x00, 
    0x80, 0x3E, 0x00, 0x00, 0x01, 0x00, 0x00, 0x00, 0x01, 0x00, 0x00, 0x00, 
    0x6A, 0xF8, 0xFF, 0xFF, 0x00, 0x00, 0x00, 0x01, 0x14, 0x00, 0x00, 0x00, 
    0x14, 0x00, 0x00, 0x00, 0x13, 0x00, 0x00, 0x00, 0x00, 0x00, 0x00, 0x02, 
    0x34, 0x00, 0x00, 0x00, 0xF4, 0xF7, 0xFF, 0xFF, 0x24, 0x00, 0x00, 0x00, 
    0x73, 0x65, 0x71, 0x75, 0x65, 0x6E, 0x74, 0x69, 0x61, 0x6C, 0x5F, 0x31, 
    0x2F, 0x72, 0x65, 0x73, 0x68, 0x61, 0x70, 0x65, 0x5F, 0x31, 0x2F, 0x52, 
    0x65, 0x73, 0x68, 0x61, 0x70, 0x65, 0x2F, 0x73, 0x68, 0x61, 0x70, 0x65, 
    0x00, 0x00, 0x00, 0x00, 0x01, 0x00, 0x00, 0x00, 0x04, 0x00, 0x00, 0x00, 
    0xBE, 0xF8, 0xFF, 0xFF, 0x00, 0x00, 0x00, 0x01, 0x14, 0x00, 0x00, 0x00, 
    0x14, 0x00, 0x00, 0x00, 0x12, 0x00, 0x00, 0x00, 0x00, 0x00, 0x00, 0x02, 
    0x34, 0x00, 0x00, 0x00, 0x48, 0xF8, 0xFF, 0xFF, 0x24, 0x00, 0x00, 0x00, 
    0x73, 0x65, 0x71, 0x75, 0x65, 0x6E, 0x74, 0x69, 0x61, 0x6C, 0x5F, 0x31, 
    0x2F, 0x72, 0x65, 0x73, 0x68, 0x61, 0x70, 0x65, 0x5F, 0x31, 0x2F, 0x73, 
    0x74, 0x72, 0x69, 0x64, 0x65, 0x64, 0x5F, 0x73, 0x6C, 0x69, 0x63, 0x65, 
    0x00, 0x00, 0x00, 0x00, 0x00, 0x00, 0x00, 0x00, 0x0E, 0xF9, 0xFF, 0xFF, 
    0x00, 0x00, 0x00, 0x01, 0x14, 0x00, 0x00, 0x00, 0x14, 0x00, 0x00, 0x00, 
    0x11, 0x00, 0x00, 0x00, 0x00, 0x00, 0x00, 0x02, 0x2C, 0x00, 0x00, 0x00, 
    0x98, 0xF8, 0xFF, 0xFF, 0x1C, 0x00, 0x00, 0x00, 0x73, 0x65, 0x71, 0x75, 
    0x65, 0x6E, 0x74, 0x69, 0x61, 0x6C, 0x5F, 0x31, 0x2F, 0x72, 0x65, 0x73, 
    0x68, 0x61, 0x70, 0x65, 0x5F, 0x31, 0x2F, 0x53, 0x68, 0x61, 0x70, 0x65, 
    0x00, 0x00, 0x00, 0x00, 0x01, 0x00, 0x00, 0x00, 0x02, 0x00, 0x00, 0x00, 
    0x5A, 0xF9, 0xFF, 0xFF, 0x00, 0x00, 0x00, 0x01, 0x14, 0x00, 0x00, 0x00, 
    0xA4, 0x01, 0x00, 0x00, 0x10, 0x00, 0x00, 0x00, 0x00, 0x00, 0x00, 0x09, 
    0xB0, 0x01, 0x00, 0x00, 0x2C, 0xFE, 0xFF, 0xFF, 0x08, 0x00, 0x00, 0x00, 
    0x08, 0x01, 0x00, 0x00, 0x20, 0x00, 0x00, 0x00, 0x00, 0x00, 0x00, 0x00, 
    0x00, 0x00, 0x00, 0x00, 0x00, 0x00, 0x00, 0x00, 0x00, 0x00, 0x00, 0x00, 
    0x00, 0x00, 0x00, 0x00, 0x00, 0x00, 0x00, 0x00, 0x00, 0x00, 0x00, 0x00, 
    0x00, 0x00, 0x00, 0x00, 0x00, 0x00, 0x00, 0x00, 0x00, 0x00, 0x00, 0x00, 
    0x00, 0x00, 0x00, 0x00, 0x00, 0x00, 0x00, 0x00, 0x00, 0x00, 0x00, 0x00, 
    0x00, 0x00, 0x00, 0x00, 0x00, 0x00, 0x00, 0x00, 0x00, 0x00, 0x00, 0x00, 
    0x00, 0x00, 0x00, 0x00, 0x00, 0x00, 0x00, 0x00, 0x00, 0x00, 0x00, 0x00, 
    0x00, 0x00, 0x00, 0x00, 0x00, 0x00, 0x00, 0x00, 0x00, 0x00, 0x00, 0x00, 
    0x00, 0x00, 0x00, 0x00, 0x00, 0x00, 0x00, 0x00, 0x00, 0x00, 0x00, 0x00, 
    0x00, 0x00, 0x00, 0x00, 0x00, 0x00, 0x00, 0x00, 0x00, 0x00, 0x00, 0x00, 
    0x00, 0x00, 0x00, 0x00, 0x00, 0x00, 0x00, 0x00, 0x00, 0x00, 0x00, 0x00, 
    0x00, 0x00, 0x00, 0x00, 0x00, 0x00, 0x00, 0x00, 0x00, 0x00, 0x00, 0x00, 
    0x00, 0x00, 0x00, 0x00, 0x00, 0x00, 0x00, 0x00, 0x00, 0x00, 0x00, 0x00, 
    0x00, 0x00, 0x00, 0x00, 0x00, 0x00, 0x00, 0x00, 0x00, 0x00, 0x00, 0x00, 
    0x00, 0x00, 0x00, 0x00, 0x00, 0x00, 0x00, 0x00, 0x00, 0x00, 0x00, 0x00, 
    0x00, 0x00, 0x00, 0x00, 0x00, 0x00, 0x00, 0x00, 0x00, 0x00, 0x00, 0x00, 
    0x00, 0x00, 0x00, 0x00, 0x00, 0x00, 0x00, 0x00, 0x00, 0x00, 0x00, 0x00, 
    0x00, 0x00, 0x00, 0x00, 0x00, 0x00, 0x00, 0x00, 0x00, 0x00, 0x00, 0x00, 
    0x00, 0x00, 0x00, 0x00, 0x00, 0x00, 0x00, 0x00, 0x00, 0x00, 0x00, 0x00, 
    0x00, 0x00, 0x00, 0x00, 0x00, 0x00, 0x00, 0x00, 0x00, 0x00, 0x00, 0x00, 
    0x00, 0x00, 0x00, 0x00, 0x00, 0x00, 0x00, 0x00, 0x00, 0x00, 0x00, 0x00, 
    0x00, 0x00, 0x00, 0x00, 0x00, 0x00, 0x00, 0x00, 0x00, 0x00, 0x00, 0x00, 
    0x20, 0x00, 0x00, 0x00, 0xB9, 0x7D, 0x18, 0x3B, 0xBD, 0x5B, 0x13, 0x3B, 
    0x11, 0x74, 0x18, 0x3B, 0x6B, 0xEA, 0x15, 0x3B, 0xD1, 0xE7, 0x18, 0x3B, 
    0x49, 0x85, 0x0B, 0x3B, 0x9C, 0x15, 0x2B, 0x3B, 0xD2, 0x46, 0x5D, 0x3B, 
    0x37, 0x7B, 0x18, 0x3B, 0x65, 0x6F, 0x15, 0x3B, 0x93, 0x9B, 0x31, 0x3B, 
    0x28, 0xC6, 0x1A, 0x3B, 0xFF, 0xCD, 0x1F, 0x3B, 0x73, 0xA8, 0x2F, 0x3B, 
    0xC5, 0x98, 0x1C, 0x3B, 0xDD, 0x50, 0x1C, 0x3B, 0xEB, 0xDE, 0x3C, 0x3B, 
    0x3F, 0x6C, 0x21, 0x3B, 0xD8, 0xA8, 0x32, 0x3B, 0x6A, 0xAC, 0x1C, 0x3B, 
    0xBE, 0xCE, 0x17, 0x3B, 0x26, 0xB6, 0x1E, 0x3B, 0xE7, 0xCA, 0x1B, 0x3B, 
    0xD2, 0x85, 0x4F, 0x3B, 0xB4, 0xE5, 0x15, 0x3B, 0x59, 0x3E, 0x23, 0x3B, 
    0xBA, 0x94, 0x1A, 0x3B, 0xA5, 0xB1, 0x1A, 0x3B, 0x2E, 0xF9, 0x20, 0x3B, 
    0xC7, 0x98, 0x2A, 0x3B, 0x9D, 0x92, 0x5D, 0x3B, 0xE5, 0xC2, 0x27, 0x3B, 
    0x12, 0x00, 0x00, 0x00, 0x74, 0x66, 0x6C, 0x2E, 0x70, 0x73, 0x65, 0x75, 
    0x64, 0x6F, 0x5F, 0x71, 0x63, 0x6F, 0x6E, 0x73, 0x74, 0x31, 0x00, 0x00, 
    0x02, 0x00, 0x00, 0x00, 0x20, 0x00, 0x00, 0x00, 0x20, 0x00, 0x00, 0x00, 
    0x2E, 0xFB, 0xFF, 0xFF, 0x00, 0x00, 0x00, 0x01, 0x20, 0x00, 0x00, 0x00, 
    0xB0, 0x01, 0x00, 0x00, 0x0F, 0x00, 0x00, 0x00, 0x00, 0x00, 0x00, 0x09, 
    0xBC, 0x01, 0x00, 0x00, 0x0C, 0x00, 0x0C, 0x00, 0x00, 0x00, 0x00, 0x00, 
    0x08, 0x00, 0x04, 0x00, 0x0C, 0x00, 0x00, 0x00, 0x08, 0x00, 0x00, 0x00, 
    0x08, 0x01, 0x00, 0x00, 0x20, 0x00, 0x00, 0x00, 0x00, 0x00, 0x00, 0x00, 
    0x00, 0x00, 0x00, 0x00, 0x00, 0x00, 0x00, 0x00, 0x00, 0x00, 0x00, 0x00, 
    0x00, 0x00, 0x00, 0x00, 0x00, 0x00, 0x00, 0x00, 0x00, 0x00, 0x00, 0x00, 
    0x00, 0x00, 0x00, 0x00, 0x00, 0x00, 0x00, 0x00, 0x00, 0x00, 0x00, 0x00, 
    0x00, 0x00, 0x00, 0x00, 0x00, 0x00, 0x00, 0x00, 0x00, 0x00, 0x00, 0x00, 
    0x00, 0x00, 0x00, 0x00, 0x00, 0x00, 0x00, 0x00, 0x00, 0x00, 0x00, 0x00, 
    0x00, 0x00, 0x00, 0x00, 0x00, 0x00, 0x00, 0x00, 0x00, 0x00, 0x00, 0x00, 
    0x00, 0x00, 0x00, 0x00, 0x00, 0x00, 0x00, 0x00, 0x00, 0x00, 0x00, 0x00, 
    0x00, 0x00, 0x00, 0x00, 0x00, 0x00, 0x00, 0x00, 0x00, 0x00, 0x00, 0x00, 
    0x00, 0x00, 0x00, 0x00, 0x00, 0x00, 0x00, 0x00, 0x00, 0x00, 0x00, 0x00, 
    0x00, 0x00, 0x00, 0x00, 0x00, 0x00, 0x00, 0x00, 0x00, 0x00, 0x00, 0x00, 
    0x00, 0x00, 0x00, 0x00, 0x00, 0x00, 0x00, 0x00, 0x00, 0x00, 0x00, 0x00, 
    0x00, 0x00, 0x00, 0x00, 0x00, 0x00, 0x00, 0x00, 0x00, 0x00, 0x00, 0x00, 
    0x00, 0x00, 0x00, 0x00, 0x00, 0x00, 0x00, 0x00, 0x00, 0x00, 0x00, 0x00, 
    0x00, 0x00, 0x00, 0x00, 0x00, 0x00, 0x00, 0x00, 0x00, 0x00, 0x00, 0x00, 
    0x00, 0x00, 0x00, 0x00, 0x00, 0x00, 0x00, 0x00, 0x00, 0x00, 0x00, 0x00, 
    0x00, 0x00, 0x00, 0x00, 0x00, 0x00, 0x00, 0x00, 0x00, 0x00, 0x00, 0x00, 
    0x00, 0x00, 0x00, 0x00, 0x00, 0x00, 0x00, 0x00, 0x00, 0x00, 0x00, 0x00, 
    0x00, 0x00, 0x00, 0x00, 0x00, 0x00, 0x00, 0x00, 0x00, 0x00, 0x00, 0x00, 
    0x00, 0x00, 0x00, 0x00, 0x00, 0x00, 0x00, 0x00, 0x00, 0x00, 0x00, 0x00, 
    0x00, 0x00, 0x00, 0x00, 0x00, 0x00, 0x00, 0x00, 0x00, 0x00, 0x00, 0x00, 
    0x00, 0x00, 0x00, 0x00, 0x00, 0x00, 0x00, 0x00, 0x00, 0x00, 0x00, 0x00, 
    0x20, 0x00, 0x00, 0x00, 0x60, 0x52, 0xCC, 0x3A, 0x7E, 0xCF, 0xD4, 0x3A, 
    0x61, 0x14, 0xD2, 0x3A, 0xE6, 0x85, 0xCB, 0x3A, 0x91, 0xCC, 0xE2, 0x3A, 
    0xDF, 0x24, 0xDC, 0x3A, 0x44, 0x8D, 0xD3, 0x3A, 0xEA, 0x1B, 0xD2, 0x3A, 
    0x91, 0x03, 0xF0, 0x3A, 0x97, 0x56, 0xF4, 0x3A, 0x99, 0xE5, 0xDA, 0x3A, 
    0xCA, 0x4F, 0xEA, 0x3A, 0x7B, 0xA8, 0xD9, 0x3A, 0x20, 0x6B, 0xD2, 0x3A, 
    0x4D, 0x3B, 0x13, 0x3B, 0x7D, 0x9E, 0xFF, 0x3A, 0xD3, 0xD6, 0xCB, 0x3A, 
    0xCF, 0xF7, 0xD6, 0x3A, 0x21, 0x05, 0xC5, 0x3A, 0x6C, 0xD4, 0xCF, 0x3A, 
    0x8A, 0x6B, 0xC8, 0x3A, 0x7D, 0x94, 0xD4, 0x3A, 0x43, 0xF2, 0xD1, 0x3A, 
    0x5A, 0x07, 0xD7, 0x3A, 0xF6, 0x73, 0xD4, 0x3A, 0x27, 0x23, 0xD7, 0x3A, 
    0x24, 0x8E, 0xD6, 0x3A, 0xD6, 0x5C, 0xD2, 0x3A, 0x97, 0x6B, 0xC1, 0x3A, 
    0x3E, 0xC0, 0xD0, 0x3A, 0x57, 0x1F, 0xCB, 0x3A, 0xCB, 0xD9, 0xDD, 0x3A, 
    0x11, 0x00, 0x00, 0x00, 0x74, 0x66, 0x6C, 0x2E, 0x70, 0x73, 0x65, 0x75, 
    0x64, 0x6F, 0x5F, 0x71, 0x63, 0x6F, 0x6E, 0x73, 0x74, 0x00, 0x00, 0x00, 
    0x04, 0x00, 0x00, 0x00, 0x20, 0x00, 0x00, 0x00, 0x03, 0x00, 0x00, 0x00, 
    0x01, 0x00, 0x00, 0x00, 0x10, 0x00, 0x00, 0x00, 0x4E, 0xFE, 0xFF, 0xFF, 
    0x00, 0x00, 0x00, 0x01, 0x10, 0x00, 0x00, 0x00, 0x10, 0x00, 0x00, 0x00, 
    0x0E, 0x00, 0x00, 0x00, 0x20, 0x00, 0x00, 0x00, 0x9C, 0xFC, 0xFF, 0xFF, 
    0x10, 0x00, 0x00, 0x00, 0x61, 0x72, 0x69, 0x74, 0x68, 0x2E, 0x63, 0x6F, 
    0x6E, 0x73, 0x74, 0x61, 0x6E, 0x74, 0x31, 0x32, 0x00, 0x00, 0x00, 0x00, 
    0x01, 0x00, 0x00, 0x00, 0x08, 0x00, 0x00, 0x00, 0x8A, 0xFE, 0xFF, 0xFF, 
    0x00, 0x00, 0x00, 0x01, 0x10, 0x00, 0x00, 0x00, 0x10, 0x00, 0x00, 0x00, 
    0x0D, 0x00, 0x00, 0x00, 0x20, 0x00, 0x00, 0x00, 0xD8, 0xFC, 0xFF, 0xFF, 
    0x10, 0x00, 0x00, 0x00, 0x61, 0x72, 0x69, 0x74, 0x68, 0x2E, 0x63, 0x6F, 
    0x6E, 0x73, 0x74, 0x61, 0x6E, 0x74, 0x31, 0x31, 0x00, 0x00, 0x00, 0x00, 
    0x01, 0x00, 0x00, 0x00, 0x10, 0x00, 0x00, 0x00, 0xC6, 0xFE, 0xFF, 0xFF, 
    0x00, 0x00, 0x00, 0x01, 0x10, 0x00, 0x00, 0x00, 0x10, 0x00, 0x00, 0x00, 
    0x0C, 0x00, 0x00, 0x00, 0x20, 0x00, 0x00, 0x00, 0x14, 0xFD, 0xFF, 0xFF, 
    0x10, 0x00, 0x00, 0x00, 0x61, 0x72, 0x69, 0x74, 0x68, 0x2E, 0x63, 0x6F, 
    0x6E, 0x73, 0x74, 0x61, 0x6E, 0x74, 0x31, 0x30, 0x00, 0x00, 0x00, 0x00, 
    0x01, 0x00, 0x00, 0x00, 0x20, 0x00, 0x00, 0x00, 0x02, 0xFF, 0xFF, 0xFF, 
    0x00, 0x00, 0x00, 0x01, 0x10, 0x00, 0x00, 0x00, 0x10, 0x00, 0x00, 0x00, 
    0x0B, 0x00, 0x00, 0x00, 0x1C, 0x00, 0x00, 0x00, 0x50, 0xFD, 0xFF, 0xFF, 
    0x0F, 0x00, 0x00, 0x00, 0x61, 0x72, 0x69, 0x74, 0x68, 0x2E, 0x63, 0x6F, 
    0x6E, 0x73, 0x74, 0x61, 0x6E, 0x74, 0x39, 0x00, 0x04, 0x00, 0x00, 0x00, 
    0x10, 0x00, 0x00, 0x00, 0x03, 0x00, 0x00, 0x00, 0x01, 0x00, 0x00, 0x00, 
    0x08, 0x00, 0x00, 0x00, 0x46, 0xFF, 0xFF, 0xFF, 0x00, 0x00, 0x00, 0x01, 
    0x10, 0x00, 0x00, 0x00, 0x10, 0x00, 0x00, 0x00, 0x0A, 0x00, 0x00, 0x00, 
    0x1C, 0x00, 0x00, 0x00, 0x94, 0xFD, 0xFF, 0xFF, 0x0F, 0x00, 0x00, 0x00, 
    0x61, 0x72, 0x69, 0x74, 0x68, 0x2E, 0x63, 0x6F, 0x6E, 0x73, 0x74, 0x61, 
    0x6E, 0x74, 0x38, 0x00, 0x04, 0x00, 0x00, 0x00, 0x08, 0x00, 0x00, 0x00, 
    0x03, 0x00, 0x00, 0x00, 0x01, 0x00, 0x00, 0x00, 0x01, 0x00, 0x00, 0x00, 
    0x8A, 0xFF, 0xFF, 0xFF, 0x00, 0x00, 0x00, 0x01, 0x10, 0x00, 0x00, 0x00, 
    0x10, 0x00, 0x00, 0x00, 0x09, 0x00, 0x00, 0x00, 0x1C, 0x00, 0x00, 0x00, 
    0xD8, 0xFD, 0xFF, 0xFF, 0x0F, 0x00, 0x00, 0x00, 0x61, 0x72, 0x69, 0x74, 
    0x68, 0x2E, 0x63, 0x6F, 0x6E, 0x73, 0x74, 0x61, 0x6E, 0x74, 0x37, 0x00, 
    0x02, 0x00, 0x00, 0x00, 0x02, 0x00, 0x00, 0x00, 0x20, 0x00, 0x00, 0x00, 
    0xC6, 0xFF, 0xFF, 0xFF, 0x00, 0x00, 0x00, 0x01, 0x10, 0x00, 0x00, 0x00, 
    0x10, 0x00, 0x00, 0x00, 0x08, 0x00, 0x00, 0x00, 0x1C, 0x00, 0x00, 0x00, 
    0x14, 0xFE, 0xFF, 0xFF, 0x0F, 0x00, 0x00, 0x00, 0x61, 0x72, 0x69, 0x74, 
    0x68, 0x2E, 0x63, 0x6F, 0x6E, 0x73, 0x74, 0x61, 0x6E, 0x74, 0x36, 0x00, 
    0x01, 0x00, 0x00, 0x00, 0x20, 0x00, 0x00, 0x00, 0x00, 0x00, 0x16, 0x00, 
    0x18, 0x00, 0x14, 0x00, 0x00, 0x00, 0x10, 0x00, 0x0C, 0x00, 0x08, 0x00, 
    0x00, 0x00, 0x00, 0x00, 0x00, 0x00, 0x07, 0x00, 0x16, 0x00, 0x00, 0x00, 
    0x00, 0x00, 0x00, 0x01, 0x10, 0x00, 0x00, 0x00, 0x10, 0x00, 0x00, 0x00, 
    0x07, 0x00, 0x00, 0x00, 0x1C, 0x00, 0x00, 0x00, 0x64, 0xFE, 0xFF, 0xFF, 
    0x0F, 0x00, 0x00, 0x00, 0x61, 0x72, 0x69, 0x74, 0x68, 0x2E, 0x63, 0x6F, 
    0x6E, 0x73, 0x74, 0x61, 0x6E, 0x74, 0x35, 0x00, 0x01, 0x00, 0x00, 0x00, 
    0x02, 0x00, 0x00, 0x00, 0x16, 0xFF, 0xFF, 0xFF, 0x00, 0x00, 0x00, 0x01, 
    0x14, 0x00, 0x00, 0x00, 0x14, 0x00, 0x00, 0x00, 0x04, 0x00, 0x00, 0x00, 
    0x00, 0x00, 0x00, 0x02, 0x1C, 0x00, 0x00, 0x00, 0xA0, 0xFE, 0xFF, 0xFF, 
    0x0F, 0x00, 0x00, 0x00, 0x61, 0x72, 0x69, 0x74, 0x68, 0x2E, 0x63, 0x6F, 
    0x6E, 0x73, 0x74, 0x61, 0x6E, 0x74, 0x34, 0x00, 0x01, 0x00, 0x00, 0x00, 
    0x01, 0x00, 0x00, 0x00, 0x52, 0xFF, 0xFF, 0xFF, 0x00, 0x00, 0x00, 0x01, 
    0x14, 0x00, 0x00, 0x00, 0x14, 0x00, 0x00, 0x00, 0x05, 0x00, 0x00, 0x00, 
    0x00, 0x00, 0x00, 0x02, 0x1C, 0x00, 0x00, 0x00, 0xDC, 0xFE, 0xFF, 0xFF, 
    0x0F, 0x00, 0x00, 0x00, 0x61, 0x72, 0x69, 0x74, 0x68, 0x2E, 0x63, 0x6F, 
    0x6E, 0x73, 0x74, 0x61, 0x6E, 0x74, 0x33, 0x00, 0x01, 0x00, 0x00, 0x00, 
    0x01, 0x00, 0x00, 0x00, 0x8E, 0xFF, 0xFF, 0xFF, 0x00, 0x00, 0x00, 0x01, 
    0x14, 0x00, 0x00, 0x00, 0x14, 0x00, 0x00, 0x00, 0x04, 0x00, 0x00, 0x00, 
    0x00, 0x00, 0x00, 0x02, 0x1C, 0x00, 0x00, 0x00, 0x18, 0xFF, 0xFF, 0xFF, 
    0x0F, 0x00, 0x00, 0x00, 0x61, 0x72, 0x69, 0x74, 0x68, 0x2E, 0x63, 0x6F, 
    0x6E, 0x73, 0x74, 0x61, 0x6E, 0x74, 0x32, 0x00, 0x00, 0x00, 0x00, 0x00, 
    0xC6, 0xFF, 0xFF, 0xFF, 0x00, 0x00, 0x00, 0x01, 0x14, 0x00, 0x00, 0x00, 
    0x14, 0x00, 0x00, 0x00, 0x03, 0x00, 0x00, 0x00, 0x00, 0x00, 0x00, 0x02, 
    0x1C, 0x00, 0x00, 0x00, 0x50, 0xFF, 0xFF, 0xFF, 0x0F, 0x00, 0x00, 0x00, 
    0x61, 0x72, 0x69, 0x74, 0x68, 0x2E, 0x63, 0x6F, 0x6E, 0x73, 0x74, 0x61, 
    0x6E, 0x74, 0x31, 0x00, 0x00, 0x00, 0x00, 0x00, 0x00, 0x00, 0x16, 0x00, 
    0x1C, 0x00, 0x18, 0x00, 0x17, 0x00, 0x10, 0x00, 0x0C, 0x00, 0x08, 0x00, 
    0x00, 0x00, 0x00, 0x00, 0x00, 0x00, 0x07, 0x00, 0x16, 0x00, 0x00, 0x00, 
    0x00, 0x00, 0x00, 0x01, 0x14, 0x00, 0x00, 0x00, 0x14, 0x00, 0x00, 0x00, 
    0x02, 0x00, 0x00, 0x00, 0x00, 0x00, 0x00, 0x02, 0x1C, 0x00, 0x00, 0x00, 
    0xA0, 0xFF, 0xFF, 0xFF, 0x0E, 0x00, 0x00, 0x00, 0x61, 0x72, 0x69, 0x74, 
    0x68, 0x2E, 0x63, 0x6F, 0x6E, 0x73, 0x74, 0x61, 0x6E, 0x74, 0x00, 0x00, 
    0x01, 0x00, 0x00, 0x00, 0x02, 0x00, 0x00, 0x00, 0x00, 0x00, 0x16, 0x00, 
    0x1C, 0x00, 0x18, 0x00, 0x00, 0x00, 0x14, 0x00, 0x10, 0x00, 0x0C, 0x00, 
    0x00, 0x00, 0x00, 0x00, 0x08, 0x00, 0x07, 0x00, 0x16, 0x00, 0x00, 0x00, 
    0x00, 0x00, 0x00, 0x01, 0x14, 0x00, 0x00, 0x00, 0x20, 0x00, 0x00, 0x00, 
    0x20, 0x00, 0x00, 0x00, 0x01, 0x00, 0x00, 0x00, 0x3C, 0x00, 0x00, 0x00, 
    0x02, 0x00, 0x00, 0x00, 0xFF, 0xFF, 0xFF, 0xFF, 0x80, 0x3E, 0x00, 0x00, 
    0x04, 0x00, 0x04, 0x00, 0x04, 0x00, 0x00, 0x00, 0x1E, 0x00, 0x00, 0x00, 
    0x73, 0x65, 0x72, 0x76, 0x69, 0x6E, 0x67, 0x5F, 0x64, 0x65, 0x66, 0x61, 
    0x75, 0x6C, 0x74, 0x5F, 0x6B, 0x65, 0x72, 0x61, 0x73, 0x5F, 0x74, 0x65, 
    0x6E, 0x73, 0x6F, 0x72, 0x3A, 0x30, 0x00, 0x00, 0x02, 0x00, 0x00, 0x00, 
    0x01, 0x00, 0x00, 0x00, 0x80, 0x3E, 0x00, 0x00, 0x09, 0x00, 0x00, 0x00, 
    0xA4, 0x00, 0x00, 0x00, 0x88, 0x00, 0x00, 0x00, 0x78, 0x00, 0x00, 0x00, 
    0x68, 0x00, 0x00, 0x00, 0x54, 0x00, 0x00, 0x00, 0x38, 0x00, 0x00, 0x00, 
    0x28, 0x00, 0x00, 0x00, 0x14, 0x00, 0x00, 0x00, 0x04, 0x00, 0x00, 0x00, 
    0x8C, 0xFF, 0xFF, 0xFF, 0x19, 0x00, 0x00, 0x00, 0x00, 0x00, 0x00, 0x19, 
    0xD8, 0xFF, 0xFF, 0xFF, 0x09, 0x00, 0x00, 0x00, 0x0C, 0x00, 0x00, 0x00, 
    0x00, 0x00, 0x00, 0x09, 0xA8, 0xFF, 0xFF, 0xFF, 0x28, 0x00, 0x00, 0x00, 
    0x00, 0x00, 0x00, 0x28, 0xB4, 0xFF, 0xFF, 0xFF, 0x11, 0x00, 0x00, 0x00, 
    0x00, 0x00, 0x00, 0x11, 0x0C, 0x00, 0x10, 0x00, 0x0F, 0x00, 0x00, 0x00, 
    0x08, 0x00, 0x04, 0x00, 0x0C, 0x00, 0x00, 0x00, 0x03, 0x00, 0x00, 0x00, 
    0x05, 0x00, 0x00, 0x00, 0x00, 0x00, 0x00, 0x03, 0xDC, 0xFF, 0xFF, 0xFF, 
    0x16, 0x00, 0x00, 0x00, 0x00, 0x00, 0x00, 0x16, 0xE8, 0xFF, 0xFF, 0xFF, 
    0x53, 0x00, 0x00, 0x00, 0x00, 0x00, 0x00, 0x53, 0xF4, 0xFF, 0xFF, 0xFF, 
    0x2D, 0x00, 0x00, 0x00, 0x00, 0x00, 0x00, 0x2D, 0x0C, 0x00, 0x0C, 0x00, 
    0x0B, 0x00, 0x00, 0x00, 0x00, 0x00, 0x04, 0x00, 0x0C, 0x00, 0x00, 0x00, 
    0x4D, 0x00, 0x00, 0x00, 0x00, 0x00, 0x00, 0x4D
};
const unsigned int model_tflite_len = 10352;

#endif // WAKE_WORD_MODEL_H
